{
  "version": "1.0",
  "truncation": null,
  "padding": null,
  "added_tokens": [
    {
      "id": 3250,
      "content": "<s>",
      "single_word": false,
      "lstrip": false,
      "rstrip": false,
      "normalized": false,
      "special": true
    },
    {
      "id": 3251,
      "content": "<pad>",
      "single_word": false,
      "lstrip": false,
      "rstrip": false,
      "normalized": false,
      "special": true
    },
    {
      "id": 3252,
      "content": "</s>",
      "single_word": false,
      "lstrip": false,
      "rstrip": false,
      "normalized": false,
      "special": true
    }
  ],
  "normalizer": null,
  "pre_tokenizer": {
    "type": "Sequence",
    "pretokenizers": [
      {
        "type": "Split",
        "pattern": {
          "Regex": "'s|'t|'re|'ve|'m|'ll|'d| ?\\p{L}+| ?\\p{N}+| ?[^\\s\\p{L}\\p{N}]+|\\s+(?!\\S)|\\s+"
        },
        "behavior": "Removed",
        "invert": true
      },
      {
        "type": "ByteLevel",
        "add_prefix_space": false,
        "trim_offsets": true,
        "use_regex": false
      }
    ]
  },
  "post_processor": null,
  "decoder": {
    "type": "ByteLevel",
    "add_prefix_space": true,
    "trim_offsets": true,
    "use_regex": true
  },
  "model": {
    "type": "BPE",
    "dropout": null,
    "unk_token": null,
    "continuing_subword_prefix": "",
    "end_of_word_suffix": "",
    "fuse_unk": false,
    "byte_fallback": false,
    "vocab": {
      "Ā": 0,
      "ā": 1,
      "Ă": 2,
      "ă": 3,
      "Ą": 4,
      "ą": 5,
      "Ć": 6,
      "ć": 7,
      "Ĉ": 8,
      "ĉ": 9,
      "Ċ": 10,
      "ċ": 11,
      "Č": 12,
      "č": 13,
      "Ď": 14,
      "ď": 15,
      "Đ": 16,
      "đ": 17,
      "Ē": 18,
      "ē": 19,
      "Ĕ": 20,
      "ĕ": 21,
      "Ė": 22,
      "ė": 23,
      "Ę": 24,
      "ę": 25,
      "Ě": 26,
      "ě": 27,
      "Ĝ": 28,
      "ĝ": 29,
      "Ğ": 30,
      "ğ": 31,
      "Ġ": 32,
      "!": 33,
      "\"": 34,
      "#": 35,
      "$": 36,
      "%": 37,
      "&": 38,
      "'": 39,
      "(": 40,
      ")": 41,
      "*": 42,
      "+": 43,
      ",": 44,
      "-": 45,
      ".": 46,
      "/": 47,
      "0": 48,
      "1": 49,
      "2": 50,
      "3": 51,
      "4": 52,
      "5": 53,
      "6": 54,
      "7": 55,
      "8": 56,
      "9": 57,
      ":": 58,
      ";": 59,
      "<": 60,
      "=": 61,
      ">": 62,
      "?": 63,
      "@": 64,
      "A": 65,
      "B": 66,
      "C": 67,
      "D": 68,
      "E": 69,
      "F": 70,
      "G": 71,
      "H": 72,
      "I": 73,
      "J": 74,
      "K": 75,
      "L": 76,
      "M": 77,
      "N": 78,
      "O": 79,
      "P": 80,
      "Q": 81,
      "R": 82,
      "S": 83,
      "T": 84,
      "U": 85,
      "V": 86,
      "W": 87,
      "X": 88,
      "Y": 89,
      "Z": 90,
      "[": 91,
      "\\": 92,
      "]": 93,
      "^": 94,
      "_": 95,
      "`": 96,
      "a": 97,
      "b": 98,
      "c": 99,
      "d": 100,
      "e": 101,
      "f": 102,
      "g": 103,
      "h": 104,
      "i": 105,
      "j": 106,
      "k": 107,
      "l": 108,
      "m": 109,
      "n": 110,
      "o": 111,
      "p": 112,
      "q": 113,
      "r": 114,
      "s": 115,
      "t": 116,
      "u": 117,
      "v": 118,
      "w": 119,
      "x": 120,
      "y": 121,
      "z": 122,
      "{": 123,
      "|": 124,
      "}": 125,
      "~": 126,
      "ġ": 127,
      "Ģ": 128,
      "ģ": 129,
      "Ĥ": 130,
      "ĥ": 131,
      "Ħ": 132,
      "ħ": 133,
      "Ĩ": 134,
      "ĩ": 135,
      "Ī": 136,
      "ī": 137,
      "Ĭ": 138,
      "ĭ": 139,
      "Į": 140,
      "į": 141,
      "İ": 142,
      "ı": 143,
      "Ĳ": 144,
      "ĳ": 145,
      "Ĵ": 146,
      "ĵ": 147,
      "Ķ": 148,
      "ķ": 149,
      "ĸ": 150,
      "Ĺ": 151,
      "ĺ": 152,
      "Ļ": 153,
      "ļ": 154,
      "Ľ": 155,
      "ľ": 156,
      "Ŀ": 157,
      "ŀ": 158,
      "Ł": 159,
      "ł": 160,
      "¡": 161,
      "¢": 162,
      "£": 163,
      "¤": 164,
      "¥": 165,
      "¦": 166,
      "§": 167,
      "¨": 168,
      "©": 169,
      "ª": 170,
      "«": 171,
      "¬": 172,
      "Ń": 173,
      "®": 174,
      "¯": 175,
      "°": 176,
      "±": 177,
      "²": 178,
      "³": 179,
      "´": 180,
      "µ": 181,
      "¶": 182,
      "·": 183,
      "¸": 184,
      "¹": 185,
      "º": 186,
      "»": 187,
      "¼": 188,
      "½": 189,
      "¾": 190,
      "¿": 191,
      "À": 192,
      "Á": 193,
      "Â": 194,
      "Ã": 195,
      "Ä": 196,
      "Å": 197,
      "Æ": 198,
      "Ç": 199,
      "È": 200,
      "É": 201,
      "Ê": 202,
      "Ë": 203,
      "Ì": 204,
      "Í": 205,
      "Î": 206,
      "Ï": 207,
      "Ð": 208,
      "Ñ": 209,
      "Ò": 210,
      "Ó": 211,
      "Ô": 212,
      "Õ": 213,
      "Ö": 214,
      "×": 215,
      "Ø": 216,
      "Ù": 217,
      "Ú": 218,
      "Û": 219,
      "Ü": 220,
      "Ý": 221,
      "Þ": 222,
      "ß": 223,
      "à": 224,
      "á": 225,
      "â": 226,
      "ã": 227,
      "ä": 228,
      "å": 229,
      "æ": 230,
      "ç": 231,
      "è": 232,
      "é": 233,
      "ê": 234,
      "ë": 235,
      "ì": 236,
      "í": 237,
      "î": 238,
      "ï": 239,
      "ð": 240,
      "ñ": 241,
      "ò": 242,
      "ó": 243,
      "ô": 244,
      "õ": 245,
      "ö": 246,
      "÷": 247,
      "ø": 248,
      "ù": 249,
      "ú": 250,
      "û": 251,
      "ü": 252,
      "ý": 253,
      "þ": 254,
      "ÿ": 255,
      "he": 256,
      "Ġt": 257,
      "Ġa": 258,
      "Ġs": 259,
      "Ġw": 260,
      "nd": 261,
      "Ġthe": 262,
      "ed": 263,
      "Ġand": 264,
      "Ġto": 265,
      "Ġb": 266,
      "in": 267,
      "Ġh": 268,
      "Ġwa": 269,
      "re": 270,
      "ou": 271,
      "Ġf": 272,
      "it": 273,
      "Ġc": 274,
      "Ġl": 275,
      "Ġd": 276,
      "er": 277,
      "Ġhe": 278,
      "Ġm": 279,
      "Ġp": 280,
      "Ġwas": 281,
      "om": 282,
      "ĠT": 283,
      "Ġo": 284,
      "ay": 285,
      "ar": 286,
      "is": 287,
      "ing": 288,
      "il": 289,
      "Ġg": 290,
      "id": 291,
      "at": 292,
      "en": 293,
      "Ġn": 294,
      "Ġsa": 295,
      "Ġha": 296,
      "ĠThe": 297,
      "ĠS": 298,
      "an": 299,
      "im": 300,
      "or": 301,
      "on": 302,
      "Ġit": 303,
      "Ġth": 304,
      "ll": 305,
      "le": 306,
      "ĠH": 307,
      "ot": 308,
      "Ġher": 309,
      "et": 310,
      "ir": 311,
      "ĠShe": 312,
      "es": 313,
      "ĠHe": 314,
      "Ġin": 315,
      "ver": 316,
      "ut": 317,
      "ow": 318,
      "ĠThey": 319,
      "ck": 320,
      "Ġe": 321,
      "Ġy": 322,
      "Ġu": 323,
      "ld": 324,
      "oo": 325,
      "Ġsaid": 326,
      "ily": 327,
      "ig": 328,
      "Ġr": 329,
      "Ġ\"": 330,
      "Ġbe": 331,
      "am": 332,
      "ĠI": 333,
      "Ġst": 334,
      "ke": 335,
      "ce": 336,
      "ve": 337,
      "Ġshe": 338,
      "pp": 339,
      "ith": 340,
      "Ġwith": 341,
      "Lily": 342,
      "On": 343,
      "Ġon": 344,
      "Ġyou": 345,
      "Ġof": 346,
      "ked": 347,
      "ri": 348,
      "nt": 349,
      "Ġpl": 350,
      "Ġhis": 351,
      "Ġso": 352,
      "ad": 353,
      "very": 354,
      "Ġday": 355,
      "Ġthat": 356,
      "Ġup": 357,
      "Ġplay": 358,
      "Ġhad": 359,
      "st": 360,
      "Ġthey": 361,
      "ĠLily": 362,
      "Ġwe": 363,
      "Ġmom": 364,
      "ĠB": 365,
      "Ġfor": 366,
      "el": 367,
      "un": 368,
      "ould": 369,
      "'s": 370,
      "The": 371,
      "my": 372,
      "Ġli": 373,
      "ch": 374,
      "Ġhapp": 375,
      "Ġwant": 376,
      "ent": 377,
      "Ġsh": 378,
      "itt": 379,
      "out": 380,
      "her": 381,
      "Ġnot": 382,
      "Ġdo": 383,
      "ly": 384,
      "se": 385,
      "ome": 386,
      "Ġvery": 387,
      "ound": 388,
      "end": 389,
      "all": 390,
      "Ġwh": 391,
      "ime": 392,
      "Ġk": 393,
      "ittle": 394,
      "Ġtime": 395,
      "al": 396,
      "Ġlittle": 397,
      "ĠM": 398,
      "Ġne": 399,
      "Ġthere": 400,
      "ht": 401,
      "Ġis": 402,
      "Ġhappy": 403,
      "Ġre": 404,
      "Ġbig": 405,
      "Ġsm": 406,
      "ĠIt": 407,
      "Ġbut": 408,
      "ĠĊ": 409,
      "ack": 410,
      "Ġan": 411,
      "Ġsaw": 412,
      ".\"": 413,
      "ry": 414,
      "riend": 415,
      "Ġfriend": 416,
      "Ġas": 417,
      "ra": 418,
      "One": 419,
      "ide": 420,
      "ake": 421,
      "'t": 422,
      "ug": 423,
      "!\"": 424,
      "Ġloo": 425,
      "Ġwere": 426,
      "ter": 427,
      "ved": 428,
      "Ġlo": 429,
      "ore": 430,
      "Once": 431,
      "ec": 432,
      "Ġtoo": 433,
      "Ġhim": 434,
      "Ġbo": 435,
      "Ġgo": 436,
      "Ġse": 437,
      "Ġare": 438,
      "Ġj": 439,
      "irl": 440,
      "ard": 441,
      "ĠTim": 442,
      "Ġwanted": 443,
      "ill": 444,
      "Ġupon": 445,
      "Ġgirl": 446,
      "Ġthem": 447,
      "Ġout": 448,
      "Ġat": 449,
      "Ġtheir": 450,
      "ur": 451,
      "ind": 452,
      "fu": 453,
      "way": 454,
      "ĠA": 455,
      "Ġsp": 456,
      "Ġdid": 457,
      "Ġsmil": 458,
      "Ġcould": 459,
      "hen": 460,
      "Ġhave": 461,
      "ain": 462,
      "hed": 463,
      "art": 464,
      "Ġex": 465,
      "rom": 466,
      "Ġwent": 467,
      "Ġcan": 468,
      "Ġar": 469,
      "ic": 470,
      "ĠBen": 471,
      "lp": 472,
      "ĠJ": 473,
      "ful": 474,
      "?\"": 475,
      "ood": 476,
      "Ġfriends": 477,
      "hing": 478,
      "ight": 479,
      "Ġnam": 480,
      "Ġkn": 481,
      "Ġall": 482,
      "Ġhelp": 483,
      "Ġsay": 484,
      "um": 485,
      "ark": 486,
      "one": 487,
      "Ġback": 488,
      "You": 489,
      "Ġfun": 490,
      "Ġcl": 491,
      "ĠTom": 492,
      "are": 493,
      "Ġno": 494,
      "Ġle": 495,
      "op": 496,
      "Ġsc": 497,
      "Ġnamed": 498,
      "Ġal": 499,
      "Ġsmiled": 500,
      "oug": 501,
      "Ġman": 502,
      "elt": 503,
      "Ġloved": 504,
      "side": 505,
      "ick": 506,
      "ĠOne": 507,
      "Ġtoy": 508,
      "Ġlike": 509,
      "Ġasked": 510,
      "Ġfelt": 511,
      "Ġfe": 512,
      "Ġlooked": 513,
      "Ġme": 514,
      "Ġsee": 515,
      "Ġsome": 516,
      "Ġaround": 517,
      "ame": 518,
      "omet": 519,
      "ĠW": 520,
      "Ġro": 521,
      "Ġbr": 522,
      "ure": 523,
      "Ġbir": 524,
      "ice": 525,
      "ĠTimmy": 526,
      "get": 527,
      "Ġwould": 528,
      "Ġboy": 529,
      "Ġstart": 530,
      "ong": 531,
      "ss": 532,
      "Ġbird": 533,
      "Ġsomet": 534,
      "Ġfa": 535,
      "Ã¢": 536,
      "Ĥ¬": 537,
      "âĤ¬": 538,
      "dd": 539,
      "Ġag": 540,
      "ings": 541,
      "Ġmake": 542,
      "ade": 543,
      "Ġwor": 544,
      "Ġwhat": 545,
      ",\"": 546,
      "king": 547,
      "ĠYou": 548,
      "ĠBut": 549,
      "Ġsays": 550,
      "own": 551,
      "Ġran": 552,
      "ie": 553,
      "Ġaway": 554,
      "Ġtre": 555,
      "gether": 556,
      "ared": 557,
      "ag": 558,
      "Ġstarted": 559,
      "oud": 560,
      "if": 561,
      "Ġmade": 562,
      "Ġcar": 563,
      "Ġsomething": 564,
      "Ġtogether": 565,
      "ther": 566,
      "Ġpark": 567,
      "Ġco": 568,
      "ited": 569,
      "Ġsad": 570,
      "Ġother": 571,
      "Ġnew": 572,
      "Ġfrom": 573,
      "Ġput": 574,
      "ell": 575,
      "Ġexc": 576,
      "Ġla": 577,
      "Ġpr": 578,
      "Ġhug": 579,
      "ĠL": 580,
      "ble": 581,
      "ook": 582,
      "Ġagain": 583,
      "ach": 584,
      "Ġmu": 585,
      "Ġgood": 586,
      "Ġhome": 587,
      "Ġwhen": 588,
      "ep": 589,
      "Ġwho": 590,
      "ried": 591,
      "est": 592,
      "hat": 593,
      "Ġfl": 594,
      "Ġthen": 595,
      "Ġch": 596,
      "Ġfound": 597,
      "pped": 598,
      "Ġdec": 599,
      "as": 600,
      "Ġwal": 601,
      "Ġget": 602,
      "qu": 603,
      "Ġplaying": 604,
      "ought": 605,
      "nn": 606,
      "Ġsw": 607,
      "ĠE": 608,
      "pl": 609,
      "ally": 610,
      "uck": 611,
      "ous": 612,
      "Ġthings": 613,
      "Ġliked": 614,
      "Ġexcited": 615,
      "Ġgot": 616,
      "ro": 617,
      "Ġbl": 618,
      "ided": 619,
      "ara": 620,
      "ave": 621,
      "Ġcame": 622,
      "Ġyour": 623,
      "Ġevery": 624,
      "Ġdecided": 625,
      "ĠD": 626,
      "ĠMom": 627,
      "Ġdog": 628,
      "ax": 629,
      "Ġscared": 630,
      "Ġv": 631,
      "ust": 632,
      "Ġdown": 633,
      "Ġone": 634,
      "ouse": 635,
      "Ġcare": 636,
      "Ġfind": 637,
      "nna": 638,
      "ist": 639,
      "ny": 640,
      "ap": 641,
      "Ġthan": 642,
      "Ġbec": 643,
      "They": 644,
      "Ġfeel": 645,
      "ue": 646,
      "Ġdad": 647,
      "Ġmy": 648,
      "udd": 649,
      "Ġab": 650,
      "Ġwill": 651,
      "arn": 652,
      "Ġlook": 653,
      "our": 654,
      "Ġke": 655,
      "Ġgr": 656,
      "Ġgra": 657,
      "us": 658,
      "nder": 659,
      "ways": 660,
      "ess": 661,
      "Ġpo": 662,
      "Ġdidn": 663,
      "fe": 664,
      "Ġtook": 665,
      "ers": 666,
      "Ġabout": 667,
      "Ġalways": 668,
      "ant": 669,
      "bb": 670,
      "Ġtoys": 671,
      "Ġlot": 672,
      "Ġkne": 673,
      "ĠSam": 674,
      "Ġmommy": 675,
      "Ġball": 676,
      "ise": 677,
      "Ġtree": 678,
      "Ġoutside": 679,
      "Ġthought": 680,
      "ĠF": 681,
      "ite": 682,
      "ened": 683,
      "Ġta": 684,
      "Ġmore": 685,
      "ched": 686,
      "Ġho": 687,
      "eci": 688,
      "Ġlearn": 689,
      "ret": 690,
      "Ġknow": 691,
      "Ġint": 692,
      "Ġold": 693,
      "ged": 694,
      "Ġsor": 695,
      "Ġcat": 696,
      "Ġlaug": 697,
      "Ġtake": 698,
      "ecial": 699,
      "ive": 700,
      "Ġspecial": 701,
      "Ġknew": 702,
      "ia": 703,
      "ĠMax": 704,
      "udden": 705,
      "Ġany": 706,
      "Ġtr": 707,
      "Ġpe": 708,
      "fter": 709,
      "Ġhow": 710,
      "uddenly": 711,
      "ma": 712,
      "Ġsorry": 713,
      "ink": 714,
      "Ġshow": 715,
      "But": 716,
      "ish": 717,
      "Ġrun": 718,
      "Ġtw": 719,
      "Ġsl": 720,
      "au": 721,
      "Ġmuch": 722,
      "and": 723,
      "Ġhand": 724,
      "Ġhouse": 725,
      "Ġor": 726,
      "Ġop": 727,
      "ven": 728,
      "Ġsk": 729,
      "Ġmo": 730,
      "Ġclo": 731,
      "Ġsun": 732,
      "Ġtried": 733,
      "Ġinto": 734,
      "Ġwater": 735,
      "Tom": 736,
      "Ġinside": 737,
      "ump": 738,
      "ank": 739,
      "ate": 740,
      "Ġtold": 741,
      "ĠSara": 742,
      "Ġgave": 743,
      "Ġproud": 744,
      "Ġqu": 745,
      "Ġthis": 746,
      "Ġen": 747,
      "Ġif": 748,
      "Ġover": 749,
      "Ġheard": 750,
      "ace": 751,
      "Ġnever": 752,
      "ty": 753,
      "Ġeach": 754,
      "Ġcouldn": 755,
      "Ġeat": 756,
      "ĠWe": 757,
      "by": 758,
      "dy": 759,
      "Ġroom": 760,
      "ĠAnna": 761,
      "ĠEvery": 762,
      "other": 763,
      "Ġpret": 764,
      "Ġpick": 765,
      "ause": 766,
      "ion": 767,
      "Ġplayed": 768,
      "Mom": 769,
      "ak": 770,
      "Ġexpl": 771,
      "etter": 772,
      "ge": 773,
      "Ġgre": 774,
      "Ġhugged": 775,
      "Ġjust": 776,
      "here": 777,
      "Ġcom": 778,
      "Ġwat": 779,
      "oth": 780,
      "Ġoff": 781,
      "Ġbox": 782,
      "Ġnice": 783,
      "Ġneed": 784,
      "'m": 785,
      "Ġmany": 786,
      "Ġstr": 787,
      "Ġbecause": 788,
      "ile": 789,
      "Ġsmall": 790,
      "Ġbu": 791,
      "Ġjo": 792,
      "iz": 793,
      "gry": 794,
      "Ġfo": 795,
      "Ġlong": 796,
      "ving": 797,
      "uc": 798,
      "ine": 799,
      "imal": 800,
      "Ġanimal": 801,
      "Ġsn": 802,
      "Ġbear": 803,
      "ort": 804,
      "Ġtry": 805,
      "ough": 806,
      "urt": 807,
      "Ġunt": 808,
      "sel": 809,
      "ild": 810,
      "Ġlearned": 811,
      "Ġuntil": 812,
      "sed": 813,
      "ĠJack": 814,
      "Ġlove": 815,
      "Ġkind": 816,
      "Ġbetter": 817,
      "ft": 818,
      "Ġflow": 819,
      "Ġim": 820,
      "ĠMia": 821,
      "Ġcall": 822,
      "Ġdon": 823,
      "He": 824,
      "urn": 825,
      "Ġend": 826,
      "ull": 827,
      "Ġbest": 828,
      "em": 829,
      "ars": 830,
      "ady": 831,
      "Yes": 832,
      "Ġcle": 833,
      "urp": 834,
      "Ġad": 835,
      "ĠAnd": 836,
      "aut": 837,
      "vent": 838,
      "ream": 839,
      "ves": 840,
      "ĠJo": 841,
      "Ġfast": 842,
      "Ġcareful": 843,
      "ĠC": 844,
      "arden": 845,
      "Ġgarden": 846,
      "Ġbeaut": 847,
      "Th": 848,
      "ber": 849,
      "Ġthanked": 850,
      "Ġfi": 851,
      "Ġche": 852,
      "Ġsky": 853,
      "Åĵ": 854,
      "pt": 855,
      "Ġbra": 856,
      "Ġeven": 857,
      "Ġjump": 858,
      "ĠSo": 859,
      "ies": 860,
      "Ġlaughed": 861,
      "It": 862,
      "lly": 863,
      "ase": 864,
      "Ġby": 865,
      "Ġloud": 866,
      "Ġte": 867,
      "ĠHer": 868,
      "self": 869,
      "iny": 870,
      "Ġgl": 871,
      "Ġlist": 872,
      "wn": 873,
      "lew": 874,
      "Ġcome": 875,
      "Ġbeauti": 876,
      "Ġhard": 877,
      "Ġbeautiful": 878,
      "Ġhurt": 879,
      "Ġway": 880,
      "Ġstill": 881,
      "Ġwo": 882,
      "Ġra": 883,
      "Ġlots": 884,
      "Ġanimals": 885,
      "Ġfam": 886,
      "Ġunder": 887,
      "ĠThen": 888,
      "Ġlet": 889,
      "Ġstay": 890,
      "ning": 891,
      "ĠÃ¢": 892,
      "ect": 893,
      "ct": 894,
      "hes": 895,
      "be": 896,
      "Ġboth": 897,
      "Ġcu": 898,
      "Ġsafe": 899,
      "ĠFrom": 900,
      "ĠHis": 901,
      "Ġbad": 902,
      "Ġcol": 903,
      "ool": 904,
      "Ġrem": 905,
      "ople": 906,
      "kay": 907,
      "Ġtwo": 908,
      "ree": 909,
      "ock": 910,
      "Ġbook": 911,
      "Ġimp": 912,
      "Ġits": 913,
      "ast": 914,
      "Ġlived": 915,
      "Tim": 916,
      "Ġshould": 917,
      "ane": 918,
      "ress": 919,
      "Ġangry": 920,
      "No": 921,
      "Ġbrave": 922,
      "ished": 923,
      "ucy": 924,
      "urpr": 925,
      "Ġwalked": 926,
      "igh": 927,
      "Ġflew": 928,
      "Ġred": 929,
      "ob": 930,
      "Ġpeople": 931,
      "Ġsurpr": 932,
      "Ġfamily": 933,
      "When": 934,
      "Ġfin": 935,
      "Ġcalled": 936,
      "Ġsoon": 937,
      "Ġstor": 938,
      "ip": 939,
      "Ġfly": 940,
      "Let": 941,
      "Ġshare": 942,
      "fore": 943,
      "Ġdan": 944,
      "led": 945,
      "Ġkept": 946,
      "xt": 947,
      "Ġfore": 948,
      "hn": 949,
      "dded": 950,
      "ised": 951,
      "Ġpic": 952,
      "Ġdoor": 953,
      "Ġrock": 954,
      "Ġgoing": 955,
      "Ġpretty": 956,
      "Ġclean": 957,
      "ĠP": 958,
      "ĠWhen": 959,
      "Ben": 960,
      "âĤ¬â": 961,
      "Ġkeep": 962,
      "Ġnow": 963,
      "Ġnoise": 964,
      "Ġshiny": 965,
      "Ġdoll": 966,
      "Ġdra": 967,
      "ummy": 968,
      "Ġopened": 969,
      "Ġwind": 970,
      "ary": 971,
      "Ġadvent": 972,
      "Ġcry": 973,
      "Ġreal": 974,
      "Ġbefore": 975,
      "age": 976,
      "Ġide": 977,
      "Ġsto": 978,
      "Ġcon": 979,
      "Ġturn": 980,
      "so": 981,
      "Ġground": 982,
      "illy": 983,
      "ied": 984,
      "What": 985,
      "les": 986,
      "Ġalso": 987,
      "Ġexplore": 988,
      "Ġfr": 989,
      "Ġey": 990,
      "Ġfar": 991,
      "Ġidea": 992,
      "Ġcolor": 993,
      "That": 994,
      "Ġnodded": 995,
      "Ħ¢": 996,
      "âĤ¬âĦ¢": 997,
      "Ġhas": 998,
      "Ġwar": 999,
      "oon": 1000,
      "th": 1001,
      "oy": 1002,
      "imb": 1003,
      "Ġpicked": 1004,
      "Ġun": 1005,
      "Ġfeeling": 1006,
      "Ġnext": 1007,
      "Ġclimb": 1008,
      "uch": 1009,
      "thing": 1010,
      "ĠDad": 1011,
      "kes": 1012,
      "ture": 1013,
      "Ġma": 1014,
      "ĠLucy": 1015,
      "Ġsmile": 1016,
      "Ġwalking": 1017,
      "Ġwhile": 1018,
      "eet": 1019,
      "aybe": 1020,
      "Ġthr": 1021,
      "Ġbed": 1022,
      "Ġadventure": 1023,
      "Thank": 1024,
      "ger": 1025,
      "Ġbeing": 1026,
      "Ġgive": 1027,
      "Ġtruck": 1028,
      "Ġclos": 1029,
      "ĠG": 1030,
      "iced": 1031,
      "Ġwr": 1032,
      "Ġfood": 1033,
      "Ġthink": 1034,
      "ff": 1035,
      "ted": 1036,
      "Ġdif": 1037,
      "Ġpicture": 1038,
      "joy": 1039,
      "ious": 1040,
      "Ġtow": 1041,
      "Ġlisten": 1042,
      "ught": 1043,
      "Ġeyes": 1044,
      "Ġbre": 1045,
      "ac": 1046,
      "Ġstopped": 1047,
      "Ġdel": 1048,
      "ĠSp": 1049,
      "Ġbro": 1050,
      "Ġafter": 1051,
      "Ġlooking": 1052,
      "Ġwait": 1053,
      "ting": 1054,
      "Ġown": 1055,
      "Ġrepl": 1056,
      "Ġvo": 1057,
      "Ġwalk": 1058,
      "Ġshout": 1059,
      "ember": 1060,
      "Ġgreat": 1061,
      "Ġflowers": 1062,
      "Ġhead": 1063,
      "Ġhands": 1064,
      "Ġblue": 1065,
      "Ġwonder": 1066,
      "ĠSuddenly": 1067,
      "Ġenjoy": 1068,
      "Ġever": 1069,
      "She": 1070,
      "Suddenly": 1071,
      "bbit": 1072,
      "irst": 1073,
      "ized": 1074,
      "Ġnear": 1075,
      "Ġimport": 1076,
      "Ġfish": 1077,
      "Ġnoticed": 1078,
      "Ġquick": 1079,
      "Ġdis": 1080,
      "able": 1081,
      "Ġslide": 1082,
      "Ġforest": 1083,
      "Ġsound": 1084,
      "Ġapp": 1085,
      "Ġus": 1086,
      "Ġmean": 1087,
      "Ġde": 1088,
      "llow": 1089,
      "Ġremember": 1090,
      "Ġrain": 1091,
      "lease": 1092,
      "maz": 1093,
      "Ġwatch": 1094,
      "Ġimportant": 1095,
      "Ġask": 1096,
      "Ġamaz": 1097,
      "Ġokay": 1098,
      "Ġshowed": 1099,
      "Ġwork": 1100,
      "Ġrabbit": 1101,
      "bbed": 1102,
      "Ġreplied": 1103,
      "bye": 1104,
      "Ġac": 1105,
      "Ġstick": 1106,
      "gan": 1107,
      "Ġbright": 1108,
      "Ġtal": 1109,
      "We": 1110,
      "fere": 1111,
      "Ġright": 1112,
      "Ġboat": 1113,
      "Ġdiffere": 1114,
      "Ġstrong": 1115,
      "day": 1116,
      "Ġeveryone": 1117,
      "Ġfollow": 1118,
      "Ġsqu": 1119,
      "Ġwatched": 1120,
      "Ġtra": 1121,
      "Anna": 1122,
      "Ġuse": 1123,
      "Ġour": 1124,
      "Ġwhere": 1125,
      "ĠSpot": 1126,
      "ered": 1127,
      "Ġye": 1128,
      "Ġquickly": 1129,
      "Ġyell": 1130,
      "ath": 1131,
      "Ġmor": 1132,
      "So": 1133,
      "Ġvoice": 1134,
      "Ġbeen": 1135,
      "Ġface": 1136,
      "ĠBob": 1137,
      "Ġdoes": 1138,
      "ĠMommy": 1139,
      "Look": 1140,
      "ng": 1141,
      "Ġhop": 1142,
      "ange": 1143,
      "ĠN": 1144,
      "Ġdifferent": 1145,
      "Ġam": 1146,
      "Ġsure": 1147,
      "Ġchild": 1148,
      "Ġcuri": 1149,
      "Sara": 1150,
      "Ġcr": 1151,
      "ĠSue": 1152,
      "aught": 1153,
      "Ġdress": 1154,
      "Ġbecame": 1155,
      "Ġgoodbye": 1156,
      "Ġhigh": 1157,
      "Ġplace": 1158,
      "Ġmag": 1159,
      "Ġcloser": 1160,
      "Ġstore": 1161,
      "ila": 1162,
      "ĠR": 1163,
      "Ġwarm": 1164,
      "Ġtell": 1165,
      "Ġforg": 1166,
      "ndma": 1167,
      "Ġcurious": 1168,
      "Ġcook": 1169,
      "leep": 1170,
      "Ġcake": 1171,
      "unny": 1172,
      "Jo": 1173,
      "more": 1174,
      "Ġanymore": 1175,
      "ass": 1176,
      "Ġbel": 1177,
      "co": 1178,
      "Ġfav": 1179,
      "Ġblock": 1180,
      "ount": 1181,
      "Ġnight": 1182,
      "Ġopen": 1183,
      "Ġpull": 1184,
      "itc": 1185,
      "Ġfirst": 1186,
      "Ġhere": 1187,
      "ached": 1188,
      "ired": 1189,
      "Ġz": 1190,
      "Ġthree": 1191,
      "ĠTh": 1192,
      "Ġpu": 1193,
      "Ġbus": 1194,
      "Her": 1195,
      "imes": 1196,
      "Ġpain": 1197,
      "iss": 1198,
      "Ġfell": 1199,
      "Can": 1200,
      "Ġbutter": 1201,
      "Ġgrabbed": 1202,
      "Ġlea": 1203,
      "Ġsweet": 1204,
      "Ġru": 1205,
      "orn": 1206,
      "Ġkid": 1207,
      "Ġonly": 1208,
      "Ġbirds": 1209,
      "Ġmon": 1210,
      "Ġjumped": 1211,
      "isy": 1212,
      "itchen": 1213,
      "Ġkitchen": 1214,
      "Ġsees": 1215,
      "Ġcont": 1216,
      "Ġba": 1217,
      "Ġbit": 1218,
      "Ġfire": 1219,
      "Ġflo": 1220,
      "Ġsand": 1221,
      "Ġhelped": 1222,
      "Ġstop": 1223,
      "Ġglad": 1224,
      "Ġhappened": 1225,
      "Ġsing": 1226,
      "Ġtri": 1227,
      "Ġgrass": 1228,
      "Ġper": 1229,
      "Ġshouted": 1230,
      "ĠSarah": 1231,
      "Ġdr": 1232,
      "ĠDo": 1233,
      "ĠLet": 1234,
      "After": 1235,
      "nts": 1236,
      "Ġbrother": 1237,
      "Ġbeh": 1238,
      "Ġreached": 1239,
      "ppy": 1240,
      "Ġstory": 1241,
      "air": 1242,
      "Ġrealized": 1243,
      "Ġlady": 1244,
      "Ġbunny": 1245,
      "Ġyummy": 1246,
      "ins": 1247,
      "ĠJane": 1248,
      "Ġhaving": 1249,
      "Ġsoft": 1250,
      "ĠAs": 1251,
      "Ġate": 1252,
      "Ġgame": 1253,
      "'re": 1254,
      "akes": 1255,
      "Ġunderst": 1256,
      "Ġhat": 1257,
      "Ġcre": 1258,
      "Ġmess": 1259,
      "Ġfavor": 1260,
      "Ġless": 1261,
      "Ġrest": 1262,
      "ĠEveryone": 1263,
      "Ġpretend": 1264,
      "Ġmum": 1265,
      "Ġprin": 1266,
      "Ġfavorite": 1267,
      "Ġthrough": 1268,
      "Ġready": 1269,
      "Ġdraw": 1270,
      "Ġpare": 1271,
      "zy": 1272,
      "Ġpap": 1273,
      "where": 1274,
      "Ġthing": 1275,
      "ĠThat": 1276,
      "Ġduck": 1277,
      "Ġlooks": 1278,
      "ĠCan": 1279,
      "Ġmagic": 1280,
      "ken": 1281,
      "Ġreally": 1282,
      "ather": 1283,
      "Ġmaking": 1284,
      "Ġcut": 1285,
      "Ġhimself": 1286,
      "ater": 1287,
      "Ġbegan": 1288,
      "Ġdone": 1289,
      "Ġworld": 1290,
      "Mommy": 1291,
      "ĠJoe": 1292,
      "fully": 1293,
      "Ġcoming": 1294,
      "Ġtired": 1295,
      "Ġprom": 1296,
      "Ġbutterf": 1297,
      "Ġkids": 1298,
      "Ġwaved": 1299,
      "Ġpond": 1300,
      "Ġwhy": 1301,
      "Ġcars": 1302,
      "bo": 1303,
      "Ġtouch": 1304,
      "Wow": 1305,
      "ster": 1306,
      "Ġworry": 1307,
      "Ġfix": 1308,
      "Ġcatch": 1309,
      "Ġste": 1310,
      "Ġflower": 1311,
      "Ġfro": 1312,
      "Ġname": 1313,
      "Ġfill": 1314,
      "Ġfunny": 1315,
      "Ġpart": 1316,
      "Ġcried": 1317,
      "uff": 1318,
      "sh": 1319,
      "Ġseen": 1320,
      "Ġpus": 1321,
      "rel": 1322,
      "Ġmouse": 1323,
      "Ġhair": 1324,
      "Ġused": 1325,
      "Ġhold": 1326,
      "Ġanother": 1327,
      "Ġdelic": 1328,
      "ient": 1329,
      "oney": 1330,
      "ign": 1331,
      "olly": 1332,
      "Ġblocks": 1333,
      "Ġtast": 1334,
      "Ġtop": 1335,
      "eddy": 1336,
      "Ġgreen": 1337,
      "Ġcool": 1338,
      "Ġparents": 1339,
      "aisy": 1340,
      "iver": 1341,
      "Ġhopped": 1342,
      "Ġlight": 1343,
      "mer": 1344,
      "hy": 1345,
      "ĠJohn": 1346,
      "Ġthank": 1347,
      "Ġsurprise": 1348,
      "Ġdoing": 1349,
      "Ġlesson": 1350,
      "ards": 1351,
      "ation": 1352,
      "Ġgi": 1353,
      "\".": 1354,
      "Ġswim": 1355,
      "Ġlikes": 1356,
      "As": 1357,
      "Don": 1358,
      "Ġpaper": 1359,
      "Ġwished": 1360,
      "Ġfloor": 1361,
      "Ġdri": 1362,
      "Ġwindow": 1363,
      "Ġbehind": 1364,
      "Timmy": 1365,
      "Ġbag": 1366,
      "Ġsmell": 1367,
      "Ġfull": 1368,
      "Ġrunning": 1369,
      "Ġwood": 1370,
      "Ġdro": 1371,
      "Sam": 1372,
      "Ġcra": 1373,
      "Ġdark": 1374,
      "Ġtrees": 1375,
      "Ġread": 1376,
      "Ġworked": 1377,
      "Ġbow": 1378,
      "Ġsho": 1379,
      "Ġyellow": 1380,
      "ike": 1381,
      "Ġdin": 1382,
      "ul": 1383,
      "Ġspot": 1384,
      "andy": 1385,
      "Ġsleep": 1386,
      "ued": 1387,
      "Ġ-": 1388,
      "Ġyears": 1389,
      "ren": 1390,
      "Ġhole": 1391,
      "Ġsat": 1392,
      "Ġhappily": 1393,
      "Ġswing": 1394,
      "aring": 1395,
      "Ġlaugh": 1396,
      "John": 1397,
      "ely": 1398,
      "Ġset": 1399,
      "Ġslow": 1400,
      "ĠIn": 1401,
      "Ġbutterfly": 1402,
      "Ġsurprised": 1403,
      "Ġcold": 1404,
      "Ġheld": 1405,
      "Ġfrog": 1406,
      "Ġcarefully": 1407,
      "rew": 1408,
      "Ġremembered": 1409,
      "Hell": 1410,
      "Hello": 1411,
      "Ġlost": 1412,
      "Ġice": 1413,
      "Ġbuy": 1414,
      "Ġneeded": 1415,
      "uit": 1416,
      "ons": 1417,
      "Ġmove": 1418,
      "Ġanything": 1419,
      "Ġhear": 1420,
      "Ġleft": 1421,
      "Ġwrong": 1422,
      "Ġtall": 1423,
      "Ġfair": 1424,
      "Ġperf": 1425,
      "Ġdream": 1426,
      "Ġenjoyed": 1427,
      "Ġfollowed": 1428,
      "reed": 1429,
      "Ġhun": 1430,
      "Ġair": 1431,
      "Ġtable": 1432,
      "Ġarri": 1433,
      "Ġsnow": 1434,
      "ens": 1435,
      "Ġel": 1436,
      "inally": 1437,
      "Ġdir": 1438,
      "cess": 1439,
      "Ġfinished": 1440,
      "Ġchildren": 1441,
      "Ġhill": 1442,
      "Ġhot": 1443,
      "ross": 1444,
      "Ġfriendly": 1445,
      "Ġbooks": 1446,
      "Ġherself": 1447,
      "Ġunderstand": 1448,
      "Ġplease": 1449,
      "Ġclose": 1450,
      "Ġcontin": 1451,
      "ds": 1452,
      "Ġdelicious": 1453,
      "ĠAfter": 1454,
      "ined": 1455,
      "Ġhid": 1456,
      "Ġarm": 1457,
      "Ġmight": 1458,
      "Ġbug": 1459,
      "Ġforgot": 1460,
      "Ġelse": 1461,
      "sp": 1462,
      "lf": 1463,
      "Ġcast": 1464,
      "Ġcolors": 1465,
      "Ġarrived": 1466,
      "Ġrel": 1467,
      "ield": 1468,
      "ĠLila": 1469,
      "Ġbaby": 1470,
      "Ġbuild": 1471,
      "Ġgent": 1472,
      "Ġbroken": 1473,
      "Ġwonderful": 1474,
      "Ġtight": 1475,
      "ĠDaisy": 1476,
      "Ġable": 1477,
      "Ġsong": 1478,
      "Ġsquir": 1479,
      "Ġmat": 1480,
      "Ġgone": 1481,
      "ĠNow": 1482,
      "ĠBenny": 1483,
      "Then": 1484,
      "asure": 1485,
      "av": 1486,
      "Ġfilled": 1487,
      "ner": 1488,
      "Ġwants": 1489,
      "ĠSally": 1490,
      "Ġwall": 1491,
      "Ġcreat": 1492,
      "Ġpat": 1493,
      "OK": 1494,
      "Ġsomeone": 1495,
      "Ġagreed": 1496,
      "room": 1497,
      "Ġleaves": 1498,
      "Ġsquirrel": 1499,
      "ask": 1500,
      "Ġyes": 1501,
      "ich": 1502,
      "Ġpink": 1503,
      "Ġcontinued": 1504,
      "Ġcount": 1505,
      "Jack": 1506,
      "ĠThere": 1507,
      "ey": 1508,
      "'ll": 1509,
      "ee": 1510,
      "ĠEm": 1511,
      "Ġlion": 1512,
      "Ġvis": 1513,
      "ama": 1514,
      "Ġbreak": 1515,
      "Ġenough": 1516,
      "From": 1517,
      "ĠTommy": 1518,
      "Ġmoment": 1519,
      "Ġgetting": 1520,
      "Ġmorning": 1521,
      "Ġpoin": 1522,
      "Ġstayed": 1523,
      "ĠMaybe": 1524,
      "Ġfinally": 1525,
      "Ġfall": 1526,
      "ries": 1527,
      "ash": 1528,
      "Ġcookies": 1529,
      "app": 1530,
      "Ġscary": 1531,
      "row": 1532,
      "Ġgrandma": 1533,
      "Ġhungry": 1534,
      "ance": 1535,
      "Ġju": 1536,
      "gon": 1537,
      "Ġturned": 1538,
      "Ġsometimes": 1539,
      "Ġfight": 1540,
      "icy": 1541,
      "Ġwet": 1542,
      "Ġbeach": 1543,
      "Ġpi": 1544,
      "Ġmakes": 1545,
      "Ġtrying": 1546,
      "Ġsmiles": 1547,
      "ĠThis": 1548,
      "oom": 1549,
      "Ġfew": 1550,
      "ĠWhat": 1551,
      "Ġothers": 1552,
      "Ġamazing": 1553,
      "apped": 1554,
      "Ġcomp": 1555,
      "Ġclimbed": 1556,
      "Ġdinner": 1557,
      "ced": 1558,
      "red": 1559,
      "Ġcream": 1560,
      "Ġlistened": 1561,
      "This": 1562,
      "Ġmother": 1563,
      "Ġpictures": 1564,
      "ĠK": 1565,
      "Ġcastle": 1566,
      "Ġmet": 1567,
      "Ġtalk": 1568,
      "key": 1569,
      "rot": 1570,
      "At": 1571,
      "oup": 1572,
      "Ġperfect": 1573,
      "Ġfur": 1574,
      "Ġmus": 1575,
      "His": 1576,
      "Ġclot": 1577,
      "Ġdaddy": 1578,
      "Ġwhite": 1579,
      "lc": 1580,
      "Ġtail": 1581,
      "Ġpuppy": 1582,
      "oring": 1583,
      "Ġclothes": 1584,
      "Ġmar": 1585,
      "ctor": 1586,
      "Ġballoon": 1587,
      "man": 1588,
      "Ġpet": 1589,
      "Ġsail": 1590,
      "amp": 1591,
      "Ġasks": 1592,
      "Ġalone": 1593,
      "ĠGra": 1594,
      "Ġpol": 1595,
      "Ġjoy": 1596,
      "ĠBilly": 1597,
      "ence": 1598,
      "Oh": 1599,
      "uffy": 1600,
      "Ġspl": 1601,
      "Ġwasn": 1602,
      "Ġbrought": 1603,
      "Ġsit": 1604,
      "ister": 1605,
      "ated": 1606,
      "Ġspark": 1607,
      "Ġwoods": 1608,
      "Ġpulled": 1609,
      "der": 1610,
      "ĠTo": 1611,
      "Ġeverything": 1612,
      "Ġstrange": 1613,
      "ucky": 1614,
      "Ġdeep": 1615,
      "Ġsear": 1616,
      "Ġgrow": 1617,
      "Ġdanger": 1618,
      "Ġwaited": 1619,
      "wl": 1620,
      "eter": 1621,
      "ott": 1622,
      "ĠJen": 1623,
      "Ġplan": 1624,
      "Ġride": 1625,
      "Ġwon": 1626,
      "Ġvisit": 1627,
      "Ġroll": 1628,
      "Ġpie": 1629,
      "Ġhide": 1630,
      "Ġfox": 1631,
      "ower": 1632,
      "Ġleave": 1633,
      "Ġamazed": 1634,
      "Ġtreat": 1635,
      "ang": 1636,
      "me": 1637,
      "zz": 1638,
      "ever": 1639,
      "os": 1640,
      "med": 1641,
      "Ġmusic": 1642,
      "Ġteddy": 1643,
      "Ġtowards": 1644,
      "Ġruns": 1645,
      "Ġcloud": 1646,
      "Ġsilly": 1647,
      "ĠAmy": 1648,
      "Ġflying": 1649,
      "Max": 1650,
      "Ġthinks": 1651,
      "Maybe": 1652,
      "Ġshap": 1653,
      "Ġpen": 1654,
      "Ġliving": 1655,
      "Ġland": 1656,
      "Ġshared": 1657,
      "Ġpre": 1658,
      "Ġfield": 1659,
      "Ġpromised": 1660,
      "gs": 1661,
      "ames": 1662,
      "ugg": 1663,
      "thy": 1664,
      "Ġowner": 1665,
      "ained": 1666,
      "Okay": 1667,
      "Ġqui": 1668,
      "ope": 1669,
      "ises": 1670,
      "Ġgu": 1671,
      "Ġrace": 1672,
      "Ġpa": 1673,
      "Ġjob": 1674,
      "igg": 1675,
      "cket": 1676,
      "Ġbelie": 1677,
      "Ġlake": 1678,
      "Ġside": 1679,
      "Ġpaint": 1680,
      "Ġmoney": 1681,
      "ol": 1682,
      "Ġmoral": 1683,
      "orm": 1684,
      "ĠJim": 1685,
      "Ġsister": 1686,
      "Ġquiet": 1687,
      "cle": 1688,
      "Ġsec": 1689,
      "ually": 1690,
      "Ġfaster": 1691,
      "Ġwear": 1692,
      "avy": 1693,
      "Ġparty": 1694,
      "Ġmust": 1695,
      "Ġbran": 1696,
      "Ġworried": 1697,
      "Ġcolorful": 1698,
      "up": 1699,
      "eces": 1700,
      "Ġslowly": 1701,
      "sw": 1702,
      "Ġpieces": 1703,
      "unch": 1704,
      "Ġansw": 1705,
      "Ġgrate": 1706,
      "Ġgif": 1707,
      "Ġbroke": 1708,
      "Ġcup": 1709,
      "ix": 1710,
      "ased": 1711,
      "Ġwelc": 1712,
      "ling": 1713,
      "Ġbott": 1714,
      "Ġtrain": 1715,
      "Ġdance": 1716,
      "Ġcandy": 1717,
      "Ġgrateful": 1718,
      "Ġblank": 1719,
      "Ġbigger": 1720,
      "Ġreach": 1721,
      "Ġbike": 1722,
      "ze": 1723,
      "Ġele": 1724,
      "Ġplant": 1725,
      "Ġsuch": 1726,
      "ph": 1727,
      "Ġpro": 1728,
      "fort": 1729,
      "Ġcho": 1730,
      "Ġmonster": 1731,
      "ĠAll": 1732,
      "Ġblanket": 1733,
      "Ġblack": 1734,
      "Ġscream": 1735,
      "less": 1736,
      "Ġtreasure": 1737,
      "Ġsmart": 1738,
      "ire": 1739,
      "Ġmagical": 1740,
      "Ġve": 1741,
      "Ġbar": 1742,
      "Ġsnack": 1743,
      "Ġdangerous": 1744,
      "Ġriver": 1745,
      "outh": 1746,
      "Ġwin": 1747,
      "Ġnap": 1748,
      "Ġpot": 1749,
      "Sure": 1750,
      "Ġeverywhere": 1751,
      "Ġmouth": 1752,
      "Ġem": 1753,
      "Ġjoin": 1754,
      "Ġdolls": 1755,
      "Ġtower": 1756,
      "Ġhelping": 1757,
      "Ġdragon": 1758,
      "Ġprincess": 1759,
      "ipped": 1760,
      "ear": 1761,
      "Ġmost": 1762,
      "Ġje": 1763,
      "Ġacross": 1764,
      "Ġdoctor": 1765,
      "ming": 1766,
      "Ġmonkey": 1767,
      "de": 1768,
      "Ġsign": 1769,
      "Ġfarmer": 1770,
      "Ġdirty": 1771,
      "Ġbee": 1772,
      "Ġthrew": 1773,
      "Ġdisapp": 1774,
      "set": 1775,
      "Why": 1776,
      "Ġtwins": 1777,
      "Ġwords": 1778,
      "Hi": 1779,
      "Ġheavy": 1780,
      "Ġfruit": 1781,
      "ĠDaddy": 1782,
      "Ġstepped": 1783,
      "ored": 1784,
      "Ġcrying": 1785,
      "Ġcarrot": 1786,
      "Ġbite": 1787,
      "Ġbowl": 1788,
      "Ġheal": 1789,
      "Ġsame": 1790,
      "eared": 1791,
      "ĠFl": 1792,
      "Ġhoped": 1793,
      "bble": 1794,
      "Mia": 1795,
      "ere": 1796,
      "Ġspr": 1797,
      "Ġhig": 1798,
      "Ġpass": 1799,
      "Ġclosed": 1800,
      "Ġstre": 1801,
      "cked": 1802,
      "ident": 1803,
      "Ġwouldn": 1804,
      "Ġbelieve": 1805,
      "Ġstuck": 1806,
      "Ġacc": 1807,
      "asket": 1808,
      "Ġheart": 1809,
      "Ġbasket": 1810,
      "Ġbath": 1811,
      "Ġtown": 1812,
      "ĠJill": 1813,
      "Ġteac": 1814,
      "ĠMr": 1815,
      "Ġbuck": 1816,
      "Ġfeels": 1817,
      "chool": 1818,
      "ĠMolly": 1819,
      "Ġbutt": 1820,
      "Ġatt": 1821,
      "Ġcour": 1822,
      "Ġcoll": 1823,
      "Ġmix": 1824,
      "iting": 1825,
      "Ġbrown": 1826,
      "Ġcray": 1827,
      "Ġeating": 1828,
      "Ġschool": 1829,
      "Ġfairy": 1830,
      "Ġchair": 1831,
      "ord": 1832,
      "Ġpushed": 1833,
      "Ġcourse": 1834,
      "Ġsuddenly": 1835,
      "Ġpack": 1836,
      "Ġpers": 1837,
      "Ġclapped": 1838,
      "pping": 1839,
      "Ġneigh": 1840,
      "Ġgentle": 1841,
      "Ġmin": 1842,
      "ventually": 1843,
      "Ġhigher": 1844,
      "Ġhit": 1845,
      "orrow": 1846,
      "Ġwithout": 1847,
      "Ġneighb": 1848,
      "Ġwelcome": 1849,
      "ts": 1850,
      "issed": 1851,
      "Ġstand": 1852,
      "Ġtoday": 1853,
      "Ġyard": 1854,
      "Ġdrove": 1855,
      "Ġteacher": 1856,
      "Ġpocket": 1857,
      "Ġsmo": 1858,
      "Ġswings": 1859,
      "ourn": 1860,
      "ier": 1861,
      "Ġwings": 1862,
      "Ġjourn": 1863,
      "ors": 1864,
      "Ġnoises": 1865,
      "Ġcheered": 1866,
      "Ġforget": 1867,
      "umb": 1868,
      "br": 1869,
      "Ġgames": 1870,
      "Ġneck": 1871,
      "Ġben": 1872,
      "ho": 1873,
      "Ġturns": 1874,
      "Ġpiece": 1875,
      "Ġfree": 1876,
      "ract": 1877,
      "vel": 1878,
      "Ġlonger": 1879,
      "Lila": 1880,
      "Finally": 1881,
      "Ġdry": 1882,
      "Ġsang": 1883,
      "Ġhugs": 1884,
      "Ġexplained": 1885,
      "Ġalong": 1886,
      "Ġaccident": 1887,
      "Ġhappen": 1888,
      "Ġshoes": 1889,
      "Ġthrow": 1890,
      "ead": 1891,
      "ible": 1892,
      "oun": 1893,
      "phant": 1894,
      "cy": 1895,
      "Ġinst": 1896,
      "Ġcorn": 1897,
      "Ġlate": 1898,
      "Ġwell": 1899,
      "itting": 1900,
      "ches": 1901,
      "Ġlon": 1902,
      "Ġmiss": 1903,
      "Ġsea": 1904,
      "Ġtrou": 1905,
      "Ġyoung": 1906,
      "ment": 1907,
      "Ġwish": 1908,
      "Ġshook": 1909,
      "Ġstories": 1910,
      "Ġsinging": 1911,
      "Ġsecret": 1912,
      "ĠMary": 1913,
      "Ġlonely": 1914,
      "Ġfence": 1915,
      "Ġadventures": 1916,
      "Ġelephant": 1917,
      "Ġpurp": 1918,
      "Ġmoved": 1919,
      "ape": 1920,
      "Ġlunch": 1921,
      "Ġstar": 1922,
      "Ġcaught": 1923,
      "Ġdist": 1924,
      "Ġwhe": 1925,
      "ek": 1926,
      "Ġupset": 1927,
      "aughty": 1928,
      "Ġrocks": 1929,
      "bby": 1930,
      "Ġstars": 1931,
      "Ġnaughty": 1932,
      "Ġtom": 1933,
      "Ġmine": 1934,
      "Ġplac": 1935,
      "Ġph": 1936,
      "Ġbelong": 1937,
      "Do": 1938,
      "ountain": 1939,
      "Ġapple": 1940,
      "ĠGrandma": 1941,
      "Ġnearby": 1942,
      "fused": 1943,
      "Ġsoup": 1944,
      "yard": 1945,
      "Ġstreet": 1946,
      "Ġbring": 1947,
      "ocked": 1948,
      "Ġdropped": 1949,
      "ces": 1950,
      "ail": 1951,
      "Ġpurple": 1952,
      "Ġwise": 1953,
      "Ġorange": 1954,
      "Ġkey": 1955,
      "Ġbackyard": 1956,
      "Ġtaking": 1957,
      "Ġowl": 1958,
      "Ġexploring": 1959,
      "Ġbucket": 1960,
      "Ġshop": 1961,
      "Ġjar": 1962,
      "Ġpast": 1963,
      "bow": 1964,
      "ub": 1965,
      "Ġexp": 1966,
      "Ġswam": 1967,
      "llo": 1968,
      "Ġshapes": 1969,
      "Ġdrink": 1970,
      "Ġes": 1971,
      "ward": 1972,
      "Ġinv": 1973,
      "ĠEmma": 1974,
      "Ġbat": 1975,
      "Ġfarm": 1976,
      "Ġseemed": 1977,
      "Ġyear": 1978,
      "Ġca": 1979,
      "aughter": 1980,
      "Ġrelie": 1981,
      "Ġresp": 1982,
      "Ġmail": 1983,
      "ĠThank": 1984,
      "ung": 1985,
      "adow": 1986,
      "Ġstu": 1987,
      "sy": 1988,
      "Ġbusy": 1989,
      "Ġtakes": 1990,
      "Ġbench": 1991,
      "ush": 1992,
      "Ġwoke": 1993,
      "ese": 1994,
      "Ġnothing": 1995,
      "Ġmad": 1996,
      "Ġaf": 1997,
      "ions": 1998,
      "Ġsounds": 1999,
      "And": 2000,
      "Ġthough": 2001,
      "Ġjuice": 2002,
      "Ġnose": 2003,
      "Ġ3": 2004,
      "Ġarms": 2005,
      "ĠFluffy": 2006,
      "Ġtiny": 2007,
      "Ġcow": 2008,
      "Ġcou": 2009,
      "Ġcomes": 2010,
      "ity": 2011,
      "Ġnest": 2012,
      "Ġdes": 2013,
      "fish": 2014,
      "cing": 2015,
      "ĠO": 2016,
      "col": 2017,
      "Ġwondered": 2018,
      "Ġholding": 2019,
      "Ġrainbow": 2020,
      "weet": 2021,
      "Ġmark": 2022,
      "Ġsitting": 2023,
      "Ġdaughter": 2024,
      "Ġpig": 2025,
      "Ġbranch": 2026,
      "Ġfit": 2027,
      "Ġcir": 2028,
      "ining": 2029,
      "thday": 2030,
      "Ġsick": 2031,
      "to": 2032,
      "Ġboun": 2033,
      "read": 2034,
      "ĠInside": 2035,
      "raid": 2036,
      "Ġafraid": 2037,
      "Ġob": 2038,
      "ose": 2039,
      "Ġdriver": 2040,
      "Ġround": 2041,
      "Ġcoat": 2042,
      "Ġpatient": 2043,
      "Ġmil": 2044,
      "Ġlift": 2045,
      "Ġgift": 2046,
      "pper": 2047,
      "Ġforever": 2048,
      "Ġcute": 2049,
      "Ġcarry": 2050,
      "Ġpeace": 2051,
      "idge": 2052,
      "vered": 2053,
      "Ġking": 2054,
      "Ġhuge": 2055,
      "Ġrelieved": 2056,
      "ittens": 2057,
      "Ġpromise": 2058,
      "Ġtou": 2059,
      "Ġletter": 2060,
      "Ġtouched": 2061,
      "Ġkite": 2062,
      "Ġspoon": 2063,
      "ours": 2064,
      "Ġbread": 2065,
      "Of": 2066,
      "ĠCome": 2067,
      "Ġband": 2068,
      "Ġcheese": 2069,
      "Ġhello": 2070,
      "sting": 2071,
      "Ġfing": 2072,
      "eth": 2073,
      "Ġbirthday": 2074,
      "Ġwhist": 2075,
      "let": 2076,
      "Ġpower": 2077,
      "og": 2078,
      "Ġgrab": 2079,
      "ĠFinally": 2080,
      "Ġexciting": 2081,
      "Ġswimming": 2082,
      "cer": 2083,
      "Ġintere": 2084,
      "Ġact": 2085,
      "Ġjourney": 2086,
      "board": 2087,
      "Ġshell": 2088,
      "Ġdays": 2089,
      "Ġonto": 2090,
      "Hey": 2091,
      "ĠMama": 2092,
      "unt": 2093,
      "Ġlaughing": 2094,
      "Ġgigg": 2095,
      "Ġwra": 2096,
      "Ġkick": 2097,
      "sc": 2098,
      "shine": 2099,
      "Ġlife": 2100,
      "Ġsunny": 2101,
      "Ġwom": 2102,
      "gg": 2103,
      "Ġcreature": 2104,
      "Ġret": 2105,
      "Ġwoman": 2106,
      "Ġcomfort": 2107,
      "gged": 2108,
      "Ġmist": 2109,
      "itch": 2110,
      "Ġhope": 2111,
      "Ġbush": 2112,
      "arp": 2113,
      "Ġdisco": 2114,
      "Ġmilk": 2115,
      "Ġputs": 2116,
      "Ġbottle": 2117,
      "Ġlucky": 2118,
      "Ġspin": 2119,
      "alm": 2120,
      "Ġcozy": 2121,
      "Ġgives": 2122,
      "ped": 2123,
      "ĠSammy": 2124,
      "Tommy": 2125,
      "Ġsunshine": 2126,
      "Ġear": 2127,
      "Ġpointed": 2128,
      "Ġcollect": 2129,
      "Ġreturn": 2130,
      "Ġducks": 2131,
      "ness": 2132,
      "Ġpudd": 2133,
      "ten": 2134,
      "Ġimag": 2135,
      "Ġinstead": 2136,
      "Ġsharp": 2137,
      "ĠSoon": 2138,
      "Ġinc": 2139,
      "Ġwatching": 2140,
      "Ġaccidentally": 2141,
      "Ġeas": 2142,
      "Ġroad": 2143,
      "Ġcave": 2144,
      "Ġfan": 2145,
      "Ġsmiling": 2146,
      "Ġlater": 2147,
      "els": 2148,
      "Later": 2149,
      "Ġsuc": 2150,
      "Ġhoney": 2151,
      "Ġanyone": 2152,
      "Ġspo": 2153,
      "ball": 2154,
      "Ġgather": 2155,
      "Ġperson": 2156,
      "Ġbought": 2157,
      "Ġent": 2158,
      "blem": 2159,
      "Ġproblem": 2160,
      "Ġhor": 2161,
      "ize": 2162,
      "Bob": 2163,
      "round": 2164,
      "itten": 2165,
      "Ġtalked": 2166,
      "Ġhealthy": 2167,
      "Ġsearched": 2168,
      "Good": 2169,
      "pa": 2170,
      "Ġce": 2171,
      "Ġsandw": 2172,
      "Ġapples": 2173,
      "cks": 2174,
      "Ġtrouble": 2175,
      "Ġloves": 2176,
      "Ġsu": 2177,
      "Ġrope": 2178,
      "Ġmeet": 2179,
      "Ġtasty": 2180,
      "irt": 2181,
      "Ġbutton": 2182,
      "Ġclouds": 2183,
      "ĠTweet": 2184,
      "Ġinteresting": 2185,
      "Ġmach": 2186,
      "Ġpop": 2187,
      "ont": 2188,
      "Ġclever": 2189,
      "eb": 2190,
      "Ġkiss": 2191,
      "Ġplane": 2192,
      "Ġcrayons": 2193,
      "Ġsmelled": 2194,
      "ove": 2195,
      "amed": 2196,
      "Ġzoom": 2197,
      "Ġmatter": 2198,
      "Ġwide": 2199,
      "Ġpar": 2200,
      "Ġpile": 2201,
      "Ġshining": 2202,
      "Ġstorm": 2203,
      "Ġvill": 2204,
      "Ġadm": 2205,
      "ÅĵI": 2206,
      "owed": 2207,
      "Lucy": 2208,
      "aur": 2209,
      "Ġfront": 2210,
      "Ġfeather": 2211,
      "Ġorgan": 2212,
      "Ġpath": 2213,
      "ĠWith": 2214,
      "ĠEll": 2215,
      "Ġprot": 2216,
      "Ġpres": 2217,
      "Ġspid": 2218,
      "ĠJimmy": 2219,
      "Ġeag": 2220,
      "Ġscreamed": 2221,
      "Ġspotted": 2222,
      "Ġprotect": 2223,
      "Ġrespect": 2224,
      "Ġmud": 2225,
      "Ġpract": 2226,
      "Ġasleep": 2227,
      "erly": 2228,
      "epend": 2229,
      "oose": 2230,
      "Come": 2231,
      "Ġsnowman": 2232,
      "Ġpuzz": 2233,
      "Ġzoo": 2234,
      "ale": 2235,
      "ndpa": 2236,
      "Ġval": 2237,
      "Ġcard": 2238,
      "Ġsaf": 2239,
      "Ġap": 2240,
      "Ġbark": 2241,
      "Ġlovely": 2242,
      "Ġneighbor": 2243,
      "ex": 2244,
      "Ġsnake": 2245,
      "Ġquest": 2246,
      "Ġwild": 2247,
      "een": 2248,
      "Ġappeared": 2249,
      "Ġteach": 2250,
      "Ġanswer": 2251,
      "isa": 2252,
      "Ġsur": 2253,
      "Ġhon": 2254,
      "Ġseat": 2255,
      "ĠSomet": 2256,
      "Ġmyster": 2257,
      "Ġwhich": 2258,
      "Ġdanced": 2259,
      "Just": 2260,
      "ond": 2261,
      "ert": 2262,
      "Ġminut": 2263,
      "Ġcheer": 2264,
      "Ġpresent": 2265,
      "Ġgoes": 2266,
      "Jim": 2267,
      "Ġgently": 2268,
      "St": 2269,
      "Ġpill": 2270,
      "Ġtrip": 2271,
      "Ġthin": 2272,
      "ching": 2273,
      "Ġhorse": 2274,
      "Ġwhole": 2275,
      "Ġtries": 2276,
      "Ġmed": 2277,
      "Ġwearing": 2278,
      "Ġgiant": 2279,
      "Ġforgive": 2280,
      "Ġdi": 2281,
      "Ġshr": 2282,
      "Ġplaces": 2283,
      "Ġconfused": 2284,
      "Ġmind": 2285,
      "ular": 2286,
      "Molly": 2287,
      "Ġdirt": 2288,
      "Ġslid": 2289,
      "Ġimpress": 2290,
      "Ġrude": 2291,
      "Every": 2292,
      "Ġphone": 2293,
      "Ġrolled": 2294,
      "Ġteeth": 2295,
      "ĠMittens": 2296,
      "Ġcorner": 2297,
      "Mum": 2298,
      "ĠGo": 2299,
      "Ġspent": 2300,
      "cean": 2301,
      "Ġworm": 2302,
      "Ġocean": 2303,
      "Ġlive": 2304,
      "Ġtasted": 2305,
      "In": 2306,
      "itty": 2307,
      "ssed": 2308,
      "Ġchick": 2309,
      "Ġfaces": 2310,
      "Ġdrive": 2311,
      "Ġsplas": 2312,
      "Ġsupp": 2313,
      "ĠHow": 2314,
      "Ġrec": 2315,
      "Ġash": 2316,
      "izz": 2317,
      "Ġcalm": 2318,
      "Ġlay": 2319,
      "nic": 2320,
      "ĠEmily": 2321,
      "Ġmachine": 2322,
      "Ġpretended": 2323,
      "Ġser": 2324,
      "Ġlad": 2325,
      "Ġpour": 2326,
      "Ġdelight": 2327,
      "la": 2328,
      "Ġpicnic": 2329,
      "Ġfeet": 2330,
      "ones": 2331,
      "Ġwave": 2332,
      "Ġoven": 2333,
      "Ġlast": 2334,
      "Ġfurry": 2335,
      "Ġpan": 2336,
      "Ġcookie": 2337,
      "Ġring": 2338,
      "Ġsack": 2339,
      "Ġtomorrow": 2340,
      "Ġpush": 2341,
      "Ġwip": 2342,
      "unk": 2343,
      "Ġspider": 2344,
      "Ġhelpful": 2345,
      "Ġemb": 2346,
      "Ġcoin": 2347,
      "Ġbubble": 2348,
      "Ġremind": 2349,
      "ĠCh": 2350,
      "Ġcouch": 2351,
      "Ġbuilding": 2352,
      "ato": 2353,
      "Ġban": 2354,
      "Ġneckl": 2355,
      "Ġbell": 2356,
      "Ġcart": 2357,
      "Ġeventually": 2358,
      "Ġign": 2359,
      "Ġladder": 2360,
      "umber": 2361,
      "ator": 2362,
      "Ġsal": 2363,
      "Ġstret": 2364,
      "Ġknee": 2365,
      "Ġtun": 2366,
      "Ġspread": 2367,
      "Ġchocol": 2368,
      "Ġsmooth": 2369,
      "Ġblew": 2370,
      "Ġbugs": 2371,
      "Ġtool": 2372,
      "Ġrob": 2373,
      "hile": 2374,
      "Ġtalking": 2375,
      "Ġtid": 2376,
      "Ġmountain": 2377,
      "arge": 2378,
      "Ġsel": 2379,
      "ife": 2380,
      "Ġchased": 2381,
      "Ġshy": 2382,
      "als": 2383,
      "Ġhiding": 2384,
      "arra": 2385,
      "Ġfoot": 2386,
      "Ġpuddle": 2387,
      "Ġembarra": 2388,
      "Ġvillage": 2389,
      "mo": 2390,
      "ighed": 2391,
      "Ġwrite": 2392,
      "Ġwaiting": 2393,
      "Soon": 2394,
      "Ġleaf": 2395,
      "Ġfighting": 2396,
      "Ġfinish": 2397,
      "not": 2398,
      "Ġsongs": 2399,
      "Ġfold": 2400,
      "Ġwore": 2401,
      "Ġwhenever": 2402,
      "Ġpool": 2403,
      "Ġcannot": 2404,
      "Ġant": 2405,
      "Ġstep": 2406,
      "My": 2407,
      "ĠJenny": 2408,
      "Ġhum": 2409,
      "Ġtreats": 2410,
      "Ġnet": 2411,
      "Ġpaw": 2412,
      "Ġchocolate": 2413,
      "Ġcross": 2414,
      "lex": 2415,
      "Ġcoo": 2416,
      "Ġcloth": 2417,
      "ĠJust": 2418,
      "Ġrobot": 2419,
      "ĠSometimes": 2420,
      "Ġselfish": 2421,
      "Ġtaste": 2422,
      "oph": 2423,
      "Ġbarked": 2424,
      "Ġbanan": 2425,
      "box": 2426,
      "Ġnecklace": 2427,
      "Ġpeaceful": 2428,
      "Ġmaybe": 2429,
      "umpy": 2430,
      "lice": 2431,
      "Ġstra": 2432,
      "ĠSt": 2433,
      "Ġfixed": 2434,
      "ult": 2435,
      "Ġstring": 2436,
      "ĠLe": 2437,
      "Ġlarge": 2438,
      "ĠEverywhere": 2439,
      "iger": 2440,
      "Ġshelf": 2441,
      "Ġstir": 2442,
      "ĠPlease": 2443,
      "Ġtidy": 2444,
      "Please": 2445,
      "Ġwash": 2446,
      "Ġsol": 2447,
      "Ġspe": 2448,
      "elly": 2449,
      "hnn": 2450,
      "Ġgen": 2451,
      "Mama": 2452,
      "Ġple": 2453,
      "old": 2454,
      "Ġcolour": 2455,
      "Ġspray": 2456,
      "lebr": 2457,
      "Ġrep": 2458,
      "Dad": 2459,
      "Ġ'": 2460,
      "Ġcelebr": 2461,
      "ungle": 2462,
      "ird": 2463,
      "Ġstone": 2464,
      "Ġjungle": 2465,
      "Ġcreative": 2466,
      "ĠJake": 2467,
      "Ġcarrots": 2468,
      "Ġembarrassed": 2469,
      "oin": 2470,
      "airs": 2471,
      "Now": 2472,
      "urse": 2473,
      "arm": 2474,
      "Ġwhistle": 2475,
      "hnny": 2476,
      "Ġcrab": 2477,
      "Ġdeter": 2478,
      "Ġwhis": 2479,
      "Ġscar": 2480,
      "Ġjumping": 2481,
      "Ġsticks": 2482,
      "Ġforward": 2483,
      "orry": 2484,
      "Ġmissed": 2485,
      "Ġhears": 2486,
      "Ġplate": 2487,
      "Ġdeterm": 2488,
      "ĠTV": 2489,
      "ĠTheir": 2490,
      "Ġtrust": 2491,
      "Ġlanded": 2492,
      "Ġknocked": 2493,
      "Ġhel": 2494,
      "Ġsharing": 2495,
      "Ġdecor": 2496,
      "most": 2497,
      "ĠSome": 2498,
      "Ġshirt": 2499,
      "Ġlegs": 2500,
      "getable": 2501,
      "Ġdisappoin": 2502,
      "Ġtea": 2503,
      "Ġtells": 2504,
      "Ġmoon": 2505,
      "Ġemp": 2506,
      "Ġvegetable": 2507,
      "ned": 2508,
      "Ġempty": 2509,
      "Ġalmost": 2510,
      "ĠDon": 2511,
      "Ġgray": 2512,
      "ground": 2513,
      "ets": 2514,
      "Ġmeadow": 2515,
      "Ġgener": 2516,
      "Ġsour": 2517,
      "Sarah": 2518,
      "Ġbreath": 2519,
      "Ġsplash": 2520,
      "Ġashamed": 2521,
      "Ġgrew": 2522,
      "Ġmeant": 2523,
      "ying": 2524,
      "Ġtightly": 2525,
      "Be": 2526,
      "ian": 2527,
      "ĠAnn": 2528,
      "ĠLisa": 2529,
      "aking": 2530,
      "dge": 2531,
      "Ġwhisp": 2532,
      "Ġnods": 2533,
      "Ġgas": 2534,
      "dle": 2535,
      "To": 2536,
      "ĠOn": 2537,
      "Ġunderstood": 2538,
      "Ġsave": 2539,
      "Ġpolice": 2540,
      "Ġjew": 2541,
      "Ġthese": 2542,
      "Ġgun": 2543,
      "Ġstood": 2544,
      "Ġyelled": 2545,
      "ital": 2546,
      "Ġhonest": 2547,
      "ĠWhy": 2548,
      "Ġbal": 2549,
      "erp": 2550,
      "Ġcarried": 2551,
      "Ġsheep": 2552,
      "den": 2553,
      "Ġdisappointed": 2554,
      "Ġspicy": 2555,
      "erry": 2556,
      "arl": 2557,
      "Ġhosp": 2558,
      "Ġsnacks": 2559,
      "Ġsuccess": 2560,
      "Ġhospital": 2561,
      "Ġhours": 2562,
      "Ġkitten": 2563,
      "Ġnut": 2564,
      "Ġgold": 2565,
      "Ġline": 2566,
      "Ġpay": 2567,
      "Ġseek": 2568,
      "Ġpillow": 2569,
      "ĠTeddy": 2570,
      "Ġbored": 2571,
      "vous": 2572,
      "Ġtest": 2573,
      "Stop": 2574,
      "ano": 2575,
      "Ġsparkly": 2576,
      "ork": 2577,
      "ustr": 2578,
      "Ġlem": 2579,
      "Ġpowerful": 2580,
      "ĠZ": 2581,
      "Ġpizz": 2582,
      "Ġjelly": 2583,
      "Ġhidden": 2584,
      "Ġshore": 2585,
      "Where": 2586,
      "Ġgenerous": 2587,
      "obby": 2588,
      "Ġfear": 2589,
      "Ġpuzzle": 2590,
      "Ġship": 2591,
      "body": 2592,
      "kin": 2593,
      "Ġwaves": 2594,
      "Ġreturned": 2595,
      "ĠRex": 2596,
      "Ġglass": 2597,
      "Ġplants": 2598,
      "Ġstanding": 2599,
      "Ġdrew": 2600,
      "ĠBe": 2601,
      "Ġeasy": 2602,
      "Ġclass": 2603,
      "ĠTogether": 2604,
      "ĠEven": 2605,
      "Ġseed": 2606,
      "Ġmot": 2607,
      "Ġtaught": 2608,
      "Ġsighed": 2609,
      "Ġknowing": 2610,
      "Ġpin": 2611,
      "Ġbedroom": 2612,
      "ina": 2613,
      "Ġfeed": 2614,
      "Ġfrustr": 2615,
      "Ġgroup": 2616,
      "ony": 2617,
      "aul": 2618,
      "Ġcloset": 2619,
      "iff": 2620,
      "ĠMum": 2621,
      "'d": 2622,
      "Ġblow": 2623,
      "Ġchew": 2624,
      "Ġhur": 2625,
      "Ġvan": 2626,
      "Ġsleepy": 2627,
      "hin": 2628,
      "cles": 2629,
      "Ġdetermined": 2630,
      "itter": 2631,
      "Ġrad": 2632,
      "Ġmysterious": 2633,
      "There": 2634,
      "Ġner": 2635,
      "Jane": 2636,
      "Ġmessy": 2637,
      "Ġpizza": 2638,
      "Ġkissed": 2639,
      "ĠPeter": 2640,
      "Ġfancy": 2641,
      "Ġcries": 2642,
      "Ġminutes": 2643,
      "Ġthankful": 2644,
      "gly": 2645,
      "Ġpoor": 2646,
      "Ġburn": 2647,
      "Ġtears": 2648,
      "Ġpolite": 2649,
      "Ġnervous": 2650,
      "Ġsold": 2651,
      "Ġhang": 2652,
      "Ġfinger": 2653,
      "Ġgate": 2654,
      "Ġfig": 2655,
      "Ġugly": 2656,
      "Ġav": 2657,
      "Ġscarf": 2658,
      "Ġcrown": 2659,
      "work": 2660,
      "oop": 2661,
      "Ġpri": 2662,
      "Ġyourself": 2663,
      "Ġgrumpy": 2664,
      "era": 2665,
      "Ġtick": 2666,
      "erpill": 2667,
      "Ġcaterpill": 2668,
      "Ġesc": 2669,
      "Ġwis": 2670,
      "ote": 2671,
      "pack": 2672,
      "Ġprince": 2673,
      "Sorry": 2674,
      "usie": 2675,
      "Ġfrustrated": 2676,
      "Ġgathered": 2677,
      "Ġsandwich": 2678,
      "Are": 2679,
      "af": 2680,
      "Ġwolf": 2681,
      "Ġbridge": 2682,
      "Ġtwirl": 2683,
      "Ġpassed": 2684,
      "Ġpir": 2685,
      "Ġhopping": 2686,
      "Ġexcite": 2687,
      "Ġspoil": 2688,
      "iddle": 2689,
      "Ġdrop": 2690,
      "Ġscr": 2691,
      "Ġreg": 2692,
      "oof": 2693,
      "fl": 2694,
      "Ġoften": 2695,
      "mb": 2696,
      "Ġlock": 2697,
      "osaur": 2698,
      "Ġleg": 2699,
      "Ġboring": 2700,
      "Ġflag": 2701,
      "Ġmummy": 2702,
      "Ġvase": 2703,
      "ensive": 2704,
      "Ġchest": 2705,
      "Ġtent": 2706,
      "Ġexpensive": 2707,
      "Ġlit": 2708,
      "illed": 2709,
      "selves": 2710,
      "sist": 2711,
      "Ġanswered": 2712,
      "Ġfil": 2713,
      "Their": 2714,
      "Ġtrue": 2715,
      "izzy": 2716,
      "Ġdinosaur": 2717,
      "Ġcaterpillar": 2718,
      "Ġdancing": 2719,
      "Ġclown": 2720,
      "Ġwagged": 2721,
      "Ġcand": 2722,
      "ella": 2723,
      "issors": 2724,
      "Ġworking": 2725,
      "Ġtaken": 2726,
      "Ġgets": 2727,
      "Ġmir": 2728,
      "Ġsaved": 2729,
      "Ġdeer": 2730,
      "Ġexcitement": 2731,
      "ual": 2732,
      "Ġpress": 2733,
      "ĠLeo": 2734,
      "Ġspend": 2735,
      "Ġpicks": 2736,
      "Ġwander": 2737,
      "Ġscissors": 2738,
      "Ġmiddle": 2739,
      "Ġcomfortable": 2740,
      "uce": 2741,
      "Who": 2742,
      "Ġones": 2743,
      "Ġrocket": 2744,
      "Ġmistake": 2745,
      "Ġfruits": 2746,
      "Ġboss": 2747,
      "Ġtie": 2748,
      "light": 2749,
      "Ġpacked": 2750,
      "Ġgiggled": 2751,
      "ĠOK": 2752,
      "Ġmedic": 2753,
      "ror": 2754,
      "Ġbone": 2755,
      "ecially": 2756,
      "ĠBr": 2757,
      "ser": 2758,
      "Ġpleased": 2759,
      "Ġstuff": 2760,
      "Ġmov": 2761,
      "Ġknight": 2762,
      "Ġvegetables": 2763,
      "Ġasking": 2764,
      "que": 2765,
      "Ġdest": 2766,
      "ates": 2767,
      "Ġbrush": 2768,
      "Ġsight": 2769,
      "Ġok": 2770,
      "Ġdogs": 2771,
      "Ġwalks": 2772,
      "ggs": 2773,
      "Ġadd": 2774,
      "Ġmedicine": 2775,
      "iness": 2776,
      "Ġweak": 2777,
      "ots": 2778,
      "Ġnumber": 2779,
      "Sp": 2780,
      "Ġcap": 2781,
      "Ġeggs": 2782,
      "pecially": 2783,
      "Ġespecially": 2784,
      "ushed": 2785,
      "Ġchange": 2786,
      "ugar": 2787,
      "Ġwheel": 2788,
      "ĠBl": 2789,
      "Ġdistance": 2790,
      "ha": 2791,
      "Ġfake": 2792,
      "Ġplayground": 2793,
      "Ġlazy": 2794,
      "ĠJohnny": 2795,
      "Ġmatch": 2796,
      "Ġmoving": 2797,
      "Ġlicked": 2798,
      "Ġsweetie": 2799,
      "Ġfeathers": 2800,
      "Ġsmelly": 2801,
      "Ġlose": 2802,
      "Ġcalling": 2803,
      "aged": 2804,
      "Ġtwist": 2805,
      "Ġclap": 2806,
      "Ġlying": 2807,
      "Ġglue": 2808,
      "Ġflut": 2809,
      "Ġdrawing": 2810,
      "Jimmy": 2811,
      "Ġcrawl": 2812,
      "Ġgar": 2813,
      "Ġsugar": 2814,
      "ĠNo": 2815,
      "Ġbecome": 2816,
      "Ġexam": 2817,
      "Ġdisappeared": 2818,
      "Ġhorn": 2819,
      "Ġmirror": 2820,
      "Ġdrum": 2821,
      "Ġeld": 2822,
      "ĠIf": 2823,
      "Ġballs": 2824,
      "Ġbake": 2825,
      "Ġyours": 2826,
      "ete": 2827,
      "Ġqueen": 2828,
      "Ġfluffy": 2829,
      "elp": 2830,
      "Ġweek": 2831,
      "Ġsplashed": 2832,
      "Ġnod": 2833,
      "Ġruined": 2834,
      "ating": 2835,
      "Ġcrack": 2836,
      "Ġdish": 2837,
      "Me": 2838,
      "Ġbody": 2839,
      "ory": 2840,
      "Ġdrank": 2841,
      "Ġbathroom": 2842,
      "Ġlead": 2843,
      "Ġmeasure": 2844,
      "Ġtape": 2845,
      "Ġcri": 2846,
      "Ġsell": 2847,
      "Ġfamous": 2848,
      "Ġnoisy": 2849,
      "Ġrid": 2850,
      "Ġstones": 2851,
      "Ġincred": 2852,
      "Ġmic": 2853,
      "Ġrelax": 2854,
      "Ġlemon": 2855,
      "Ġskipped": 2856,
      "Ġed": 2857,
      "uggest": 2858,
      "Ġsuggest": 2859,
      "Ġcage": 2860,
      "Ġquestions": 2861,
      "ination": 2862,
      "Ġpray": 2863,
      "hip": 2864,
      "Ġroar": 2865,
      "Ġwrote": 2866,
      "Ġcovered": 2867,
      "Joe": 2868,
      "Ġext": 2869,
      "Ġclear": 2870,
      "Ġjuicy": 2871,
      "yal": 2872,
      "Sally": 2873,
      "Ġord": 2874,
      "Ġcontent": 2875,
      "Ġcheck": 2876,
      "Ġdecide": 2877,
      "Ġchicken": 2878,
      "Ġind": 2879,
      "eez": 2880,
      "Billy": 2881,
      "Help": 2882,
      "Ġdig": 2883,
      "illi": 2884,
      "Ġeager": 2885,
      "Ġtiger": 2886,
      "Ġboys": 2887,
      "Ġrare": 2888,
      "Ġmoms": 2889,
      "ĠAt": 2890,
      "Ġsailed": 2891,
      "Jill": 2892,
      "Ġshoot": 2893,
      "Ġboard": 2894,
      "Ġteam": 2895,
      "Ġmotor": 2896,
      "Ġshows": 2897,
      "Ġincredible": 2898,
      "Ġrich": 2899,
      "enny": 2900,
      "Ġglow": 2901,
      "?\".": 2902,
      "alous": 2903,
      "Ġswan": 2904,
      "Ġfigure": 2905,
      "Ġfis": 2906,
      "imp": 2907,
      "Ġcleaned": 2908,
      "umbled": 2909,
      "Ġfine": 2910,
      "Ġfather": 2911,
      "Ġbranches": 2912,
      "Ġjealous": 2913,
      "Ġelderly": 2914,
      "Ġhurts": 2915,
      "Ġneeds": 2916,
      "Ġorganized": 2917,
      "Ġloyal": 2918,
      "Ġextra": 2919,
      "Ġtowel": 2920,
      "Ġborrow": 2921,
      "Ġadventur": 2922,
      "Ġaw": 2923,
      "Ġbubbles": 2924,
      "Ġlamp": 2925,
      "ĠEnd": 2926,
      "Ġjoke": 2927,
      "Ġmod": 2928,
      "Ġsoap": 2929,
      "Ġcoins": 2930,
      "ĠLittle": 2931,
      "Ġadventurous": 2932,
      "Ġrealised": 2933,
      "Ġfrown": 2934,
      "Ġtag": 2935,
      "Ġham": 2936,
      "Gra": 2937,
      "Ġdiscovered": 2938,
      "land": 2939,
      "Well": 2940,
      "ately": 2941,
      "asing": 2942,
      "ti": 2943,
      "Ġgarage": 2944,
      "Ġoffered": 2945,
      "Ġstraw": 2946,
      "fic": 2947,
      "Ġhappening": 2948,
      "Ġlifted": 2949,
      "ipp": 2950,
      "Ġcost": 2951,
      "keep": 2952,
      "Ġonce": 2953,
      "Ġmap": 2954,
      "Ġwhale": 2955,
      "ipper": 2956,
      "imed": 2957,
      "Ġwand": 2958,
      "Ġmighty": 2959,
      "Ġlouder": 2960,
      "Ġcover": 2961,
      "Ġguess": 2962,
      "Ġword": 2963,
      "Ġdiffic": 2964,
      "wled": 2965,
      "Ġcolourful": 2966,
      "cept": 2967,
      "Ġcrawled": 2968,
      "Ġtrack": 2969,
      "Ġweird": 2970,
      "Ġchase": 2971,
      "ique": 2972,
      "Ġhunt": 2973,
      "Ġunus": 2974,
      "gu": 2975,
      "Ġrecord": 2976,
      "port": 2977,
      "Ġeye": 2978,
      "Ġhose": 2979,
      "Ġyog": 2980,
      "Ġjewel": 2981,
      "Ġang": 2982,
      "Ġknife": 2983,
      "Ġmanaged": 2984,
      "Ġpump": 2985,
      "alk": 2986,
      "ured": 2987,
      "Ġdifficult": 2988,
      "Mummy": 2989,
      "Amy": 2990,
      "Ġbottom": 2991,
      "Ġsil": 2992,
      "Ġkindness": 2993,
      "Ġsword": 2994,
      "Ġcircle": 2995,
      "Ġunusual": 2996,
      "Ġunique": 2997,
      "ĠBlue": 2998,
      "cil": 2999,
      "Ġfright": 3000,
      "Ġthick": 3001,
      "Ġtrucks": 3002,
      "Ġpencil": 3003,
      "ĠMark": 3004,
      "Sue": 3005,
      "Ġgiving": 3006,
      "lla": 3007,
      "Ġbalance": 3008,
      "ages": 3009,
      "Ġlaughs": 3010,
      "Ġtoug": 3011,
      "Ġbanana": 3012,
      "ery": 3013,
      "Ġedge": 3014,
      "Ġadded": 3015,
      "Ġfour": 3016,
      "ĠSusie": 3017,
      "Ġbarn": 3018,
      "Ġshake": 3019,
      "How": 3020,
      "Here": 3021,
      "Ġcompet": 3022,
      "ĠKitty": 3023,
      "Ġfool": 3024,
      "head": 3025,
      "Ġturt": 3026,
      "erries": 3027,
      "Ġballoons": 3028,
      "Ġharder": 3029,
      "keeper": 3030,
      "aw": 3031,
      "Ġdizzy": 3032,
      "Ġberries": 3033,
      "Spot": 3034,
      "rag": 3035,
      "ym": 3036,
      "Ġsmoke": 3037,
      "Ġwrapped": 3038,
      "Ġdepend": 3039,
      "uggled": 3040,
      "iv": 3041,
      "olog": 3042,
      "Ġfavour": 3043,
      "Ġcab": 3044,
      "Ġbrothers": 3045,
      "Ġbloom": 3046,
      "Ġshape": 3047,
      "Ġgrown": 3048,
      "Ġspun": 3049,
      "Ġchoose": 3050,
      "Ġvalu": 3051,
      "Ġfalls": 3052,
      "Ġpointing": 3053,
      "Ġgoat": 3054,
      "Ġcircles": 3055,
      "ready": 3056,
      "Ġhero": 3057,
      "Ġmeans": 3058,
      "Ġbald": 3059,
      "Ġcher": 3060,
      "Ġlearning": 3061,
      "Ġmarket": 3062,
      "ject": 3063,
      "Ġapolog": 3064,
      "Ġskin": 3065,
      "Ġenjoying": 3066,
      "Ġcabin": 3067,
      "Ġbrilli": 3068,
      "Ġboxes": 3069,
      "Ġflash": 3070,
      "Ġears": 3071,
      "Ġdreamed": 3072,
      "Ġimpressed": 3073,
      "lies": 3074,
      "Ġbelonged": 3075,
      "Ġnorm": 3076,
      "Ġfavourite": 3077,
      "Ġsearch": 3078,
      "Ġagainst": 3079,
      "Ġtough": 3080,
      "Ġdolp": 3081,
      "Ġhats": 3082,
      "ĠBrown": 3083,
      "Ġisland": 3084,
      "Ġref": 3085,
      "Ġbrilliant": 3086,
      "Ġloudly": 3087,
      "Ġalready": 3088,
      "Ġpee": 3089,
      "ye": 3090,
      "Ġbuttons": 3091,
      "und": 3092,
      "Ġharm": 3093,
      "Ġlog": 3094,
      "ĠBobby": 3095,
      "ouses": 3096,
      "Ġmovie": 3097,
      "ola": 3098,
      "Ġstrawber": 3099,
      "fast": 3100,
      "Ġsaying": 3101,
      "Ġwrap": 3102,
      "ature": 3103,
      "ilt": 3104,
      "Ġwagon": 3105,
      "emo": 3106,
      "Ġscare": 3107,
      "rage": 3108,
      "Ġhelps": 3109,
      "Ġbreakfast": 3110,
      "Ġbossy": 3111,
      "Ġmelt": 3112,
      "Ġnormal": 3113,
      "Ġcro": 3114,
      "anged": 3115,
      "Ġtrunk": 3116,
      "Ġsafely": 3117,
      "Ġcompetit": 3118,
      "Ġjack": 3119,
      "Ġrough": 3120,
      "Ġpainting": 3121,
      "Ġter": 3122,
      "Ġslipped": 3123,
      "Ġgrace": 3124,
      "Ġbatter": 3125,
      "Ġstubb": 3126,
      "Ġclay": 3127,
      "Ġhouses": 3128,
      "Ġfat": 3129,
      "ĠMy": 3130,
      "Ġbirdie": 3131,
      "Ġescape": 3132,
      "apping": 3133,
      "Ġproudly": 3134,
      "Ġfrightened": 3135,
      "Ġcheerful": 3136,
      "Ġcudd": 3137,
      "Ġgrand": 3138,
      "Ġcrayon": 3139,
      "Ġfoolish": 3140,
      "Ġvaluable": 3141,
      "Ġwake": 3142,
      "Ġlibr": 3143,
      "gy": 3144,
      "Ġfridge": 3145,
      "Ġhappiness": 3146,
      "Ġthu": 3147,
      "reen": 3148,
      "Ġknows": 3149,
      "Ġinvited": 3150,
      "Ġstubborn": 3151,
      "Ġstudy": 3152,
      "ĠToday": 3153,
      "cient": 3154,
      "Ġsounded": 3155,
      "Ġtoast": 3156,
      "Ġicy": 3157,
      "pes": 3158,
      "Ġturtle": 3159,
      "ĠEllie": 3160,
      "Ġguit": 3161,
      "ĠDan": 3162,
      "Ġfier": 3163,
      "ipe": 3164,
      "omed": 3165,
      "Ġexcla": 3166,
      "Ġoffice": 3167,
      "wards": 3168,
      "Ġlaw": 3169,
      "Ġaccept": 3170,
      "Ġdreams": 3171,
      "arth": 3172,
      "Ġnotice": 3173,
      "Ġshells": 3174,
      "Ġwalls": 3175,
      "Ġancient": 3176,
      "Ġshark": 3177,
      "edient": 3178,
      "Ġdependable": 3179,
      "Ġexclaimed": 3180,
      "Ġtimes": 3181,
      "Ġspace": 3182,
      "Ġstri": 3183,
      "Ġparrot": 3184,
      "Ġdead": 3185,
      "Ġwiped": 3186,
      "Ġnosy": 3187,
      "Ġdough": 3188,
      "Ġfierce": 3189,
      "Ġuseful": 3190,
      "Ġdelicate": 3191,
      "ĠFred": 3192,
      "Ġlights": 3193,
      "Ġpil": 3194,
      "Ġterri": 3195,
      "Ġunl": 3196,
      "Ġcity": 3197,
      "Ġlean": 3198,
      "Ġweal": 3199,
      "ext": 3200,
      "Ġtools": 3201,
      "Ġrose": 3202,
      "Ġpoured": 3203,
      "Ġegg": 3204,
      "Ġrat": 3205,
      "Ġmem": 3206,
      "az": 3207,
      "Ġfingers": 3208,
      "Ġsuggested": 3209,
      "Ġmixed": 3210,
      "Ġbags": 3211,
      "Ġnicely": 3212,
      "Ġsmaller": 3213,
      "orge": 3214,
      "Ġkinds": 3215,
      "Ġmagn": 3216,
      "Ġfountain": 3217,
      "Ġroof": 3218,
      "Ġstream": 3219,
      "Ġobedient": 3220,
      "Ġexcitedly": 3221,
      "Ġzip": 3222,
      "Ġcam": 3223,
      "Ġguitar": 3224,
      "Ġstumbled": 3225,
      "ache": 3226,
      "Ġbitter": 3227,
      "Ġrode": 3228,
      "Ġcounted": 3229,
      "ĠBobo": 3230,
      "ĠRose": 3231,
      "ÅĵLet": 3232,
      "Ġlab": 3233,
      "ention": 3234,
      "Ġlow": 3235,
      "Ġspinning": 3236,
      "Ġabove": 3237,
      "Ġow": 3238,
      "Ġlocked": 3239,
      "Ġdesign": 3240,
      "kn": 3241,
      "ĠElla": 3242,
      "Ġwitch": 3243,
      "Ġresc": 3244,
      "Ġindepend": 3245,
      "irp": 3246,
      "ado": 3247,
      "Ġbushes": 3248,
      "ĠMrs": 3249,
      "<s>": 3250,
      "<pad>": 3251,
      "</s>": 3252
    },
    "merges": [
      "h e",
      "Ġ t",
      "Ġ a",
      "Ġ s",
      "Ġ w",
      "n d",
      "Ġt he",
      "e d",
      "Ġa nd",
      "Ġt o",
      "Ġ b",
      "i n",
      "Ġ h",
      "Ġw a",
      "r e",
      "o u",
      "Ġ f",
      "i t",
      "Ġ c",
      "Ġ l",
      "Ġ d",
      "e r",
      "Ġ he",
      "Ġ m",
      "Ġ p",
      "Ġwa s",
      "o m",
      "Ġ T",
      "Ġ o",
      "a y",
      "a r",
      "i s",
      "in g",
      "i l",
      "Ġ g",
      "i d",
      "a t",
      "e n",
      "Ġ n",
      "Ġs a",
      "Ġh a",
      "ĠT he",
      "Ġ S",
      "a n",
      "i m",
      "o r",
      "o n",
      "Ġ it",
      "Ġt h",
      "l l",
      "l e",
      "Ġ H",
      "o t",
      "Ġhe r",
      "e t",
      "i r",
      "ĠS he",
      "e s",
      "ĠH e",
      "Ġ in",
      "v er",
      "u t",
      "o w",
      "ĠThe y",
      "c k",
      "Ġ e",
      "Ġ y",
      "Ġ u",
      "l d",
      "o o",
      "Ġsa id",
      "il y",
      "i g",
      "Ġ r",
      "Ġ \"",
      "Ġb e",
      "a m",
      "Ġ I",
      "Ġs t",
      "k e",
      "c e",
      "v e",
      "Ġs he",
      "p p",
      "it h",
      "Ġw ith",
      "L ily",
      "O n",
      "Ġo n",
      "Ġy ou",
      "Ġo f",
      "k ed",
      "r i",
      "n t",
      "Ġp l",
      "Ġh is",
      "Ġs o",
      "a d",
      "ver y",
      "Ġd ay",
      "Ġth at",
      "Ġu p",
      "Ġpl ay",
      "Ġha d",
      "s t",
      "Ġthe y",
      "Ġ Lily",
      "Ġw e",
      "Ġm om",
      "Ġ B",
      "Ġf or",
      "e l",
      "u n",
      "ou ld",
      "' s",
      "T he",
      "m y",
      "Ġl i",
      "c h",
      "Ġha pp",
      "Ġwa nt",
      "en t",
      "Ġs h",
      "it t",
      "ou t",
      "he r",
      "Ġn ot",
      "Ġd o",
      "l y",
      "s e",
      "om e",
      "Ġ very",
      "ou nd",
      "e nd",
      "a ll",
      "Ġw h",
      "im e",
      "Ġ k",
      "itt le",
      "Ġt ime",
      "a l",
      "Ġl ittle",
      "Ġ M",
      "Ġn e",
      "Ġthe re",
      "h t",
      "Ġ is",
      "Ġhapp y",
      "Ġ re",
      "Ġb ig",
      "Ġs m",
      "ĠI t",
      "Ġb ut",
      "Ġ Ċ",
      "a ck",
      "Ġa n",
      "Ġsa w",
      ". \"",
      "r y",
      "ri end",
      "Ġf riend",
      "Ġa s",
      "r a",
      "On e",
      "id e",
      "a ke",
      "' t",
      "u g",
      "! \"",
      "Ġl oo",
      "Ġwe re",
      "t er",
      "v ed",
      "Ġl o",
      "o re",
      "On ce",
      "e c",
      "Ġto o",
      "Ġh im",
      "Ġb o",
      "Ġg o",
      "Ġs e",
      "Ġa re",
      "Ġ j",
      "ir l",
      "ar d",
      "ĠT im",
      "Ġwant ed",
      "il l",
      "Ġup on",
      "Ġg irl",
      "Ġthe m",
      "Ġ out",
      "Ġa t",
      "Ġthe ir",
      "u r",
      "i nd",
      "f u",
      "w ay",
      "Ġ A",
      "Ġs p",
      "Ġd id",
      "Ġsm il",
      "Ġc ould",
      "he n",
      "Ġha ve",
      "a in",
      "he d",
      "ar t",
      "Ġe x",
      "r om",
      "Ġw ent",
      "Ġc an",
      "Ġa r",
      "i c",
      "ĠB en",
      "l p",
      "Ġ J",
      "fu l",
      "? \"",
      "oo d",
      "Ġfriend s",
      "h ing",
      "ig ht",
      "Ġn am",
      "Ġk n",
      "Ġa ll",
      "Ġhe lp",
      "Ġs ay",
      "u m",
      "ar k",
      "on e",
      "Ġb ack",
      "Y ou",
      "Ġf un",
      "Ġc l",
      "ĠT om",
      "a re",
      "Ġn o",
      "Ġl e",
      "o p",
      "Ġs c",
      "Ġnam ed",
      "Ġa l",
      "Ġsmil ed",
      "ou g",
      "Ġm an",
      "el t",
      "Ġlo ved",
      "s ide",
      "i ck",
      "Ġ One",
      "Ġto y",
      "Ġli ke",
      "Ġas ked",
      "Ġf elt",
      "Ġf e",
      "Ġloo ked",
      "Ġm e",
      "Ġse e",
      "Ġs ome",
      "Ġar ound",
      "am e",
      "om et",
      "Ġ W",
      "Ġr o",
      "Ġb r",
      "u re",
      "Ġb ir",
      "i ce",
      "ĠTim my",
      "g et",
      "Ġw ould",
      "Ġbo y",
      "Ġst art",
      "on g",
      "s s",
      "Ġbir d",
      "Ġs omet",
      "Ġf a",
      "Ã ¢",
      "Ĥ ¬",
      "â Ĥ¬",
      "d d",
      "Ġa g",
      "ing s",
      "Ġm ake",
      "ad e",
      "Ġw or",
      "Ġwh at",
      ", \"",
      "k ing",
      "Ġ You",
      "ĠB ut",
      "Ġsay s",
      "ow n",
      "Ġr an",
      "i e",
      "Ġa way",
      "Ġt re",
      "get her",
      "ar ed",
      "a g",
      "Ġstart ed",
      "ou d",
      "i f",
      "Ġm ade",
      "Ġc ar",
      "Ġsomet hing",
      "Ġto gether",
      "t her",
      "Ġp ark",
      "Ġc o",
      "it ed",
      "Ġsa d",
      "Ġo ther",
      "Ġne w",
      "Ġf rom",
      "Ġp ut",
      "e ll",
      "Ġex c",
      "Ġl a",
      "Ġp r",
      "Ġh ug",
      "Ġ L",
      "b le",
      "oo k",
      "Ġag ain",
      "a ch",
      "Ġm u",
      "Ġg ood",
      "Ġh ome",
      "Ġw hen",
      "e p",
      "Ġwh o",
      "ri ed",
      "es t",
      "h at",
      "Ġf l",
      "Ġthe n",
      "Ġc h",
      "Ġf ound",
      "pp ed",
      "Ġd ec",
      "a s",
      "Ġwa l",
      "Ġg et",
      "q u",
      "Ġplay ing",
      "oug ht",
      "n n",
      "Ġs w",
      "Ġ E",
      "p l",
      "all y",
      "u ck",
      "ou s",
      "Ġth ings",
      "Ġli ked",
      "Ġexc ited",
      "Ġg ot",
      "r o",
      "Ġb l",
      "id ed",
      "ar a",
      "a ve",
      "Ġc ame",
      "Ġyou r",
      "Ġe very",
      "Ġdec ided",
      "Ġ D",
      "ĠM om",
      "Ġdo g",
      "a x",
      "Ġsc ared",
      "Ġ v",
      "u st",
      "Ġd own",
      "Ġon e",
      "ou se",
      "Ġc are",
      "Ġf ind",
      "nn a",
      "is t",
      "n y",
      "a p",
      "Ġth an",
      "Ġbe c",
      "The y",
      "Ġfe el",
      "u e",
      "Ġd ad",
      "Ġm y",
      "u dd",
      "Ġa b",
      "Ġw ill",
      "ar n",
      "Ġloo k",
      "ou r",
      "Ġ ke",
      "Ġg r",
      "Ġg ra",
      "u s",
      "nd er",
      "way s",
      "es s",
      "Ġp o",
      "Ġdid n",
      "f e",
      "Ġtoo k",
      "er s",
      "Ġab out",
      "Ġal ways",
      "an t",
      "b b",
      "Ġtoy s",
      "Ġl ot",
      "Ġkn e",
      "ĠS am",
      "Ġmom my",
      "Ġb all",
      "is e",
      "Ġtre e",
      "Ġout side",
      "Ġth ought",
      "Ġ F",
      "it e",
      "en ed",
      "Ġt a",
      "Ġm ore",
      "c hed",
      "Ġh o",
      "ec i",
      "Ġle arn",
      "re t",
      "Ġkn ow",
      "Ġin t",
      "Ġo ld",
      "g ed",
      "Ġs or",
      "Ġc at",
      "Ġla ug",
      "Ġt ake",
      "eci al",
      "i ve",
      "Ġsp ecial",
      "Ġkne w",
      "i a",
      "ĠM ax",
      "udd en",
      "Ġan y",
      "Ġt r",
      "Ġp e",
      "f ter",
      "Ġh ow",
      "udden ly",
      "m a",
      "Ġsor ry",
      "in k",
      "Ġsh ow",
      "B ut",
      "is h",
      "Ġr un",
      "Ġt w",
      "Ġs l",
      "a u",
      "Ġmu ch",
      "a nd",
      "Ġha nd",
      "Ġh ouse",
      "Ġo r",
      "Ġo p",
      "v en",
      "Ġs k",
      "Ġm o",
      "Ġcl o",
      "Ġs un",
      "Ġt ried",
      "Ġint o",
      "Ġwa ter",
      "T om",
      "Ġin side",
      "um p",
      "an k",
      "at e",
      "Ġto ld",
      "ĠS ara",
      "Ġg ave",
      "Ġpr oud",
      "Ġ qu",
      "Ġth is",
      "Ġ en",
      "Ġ if",
      "Ġo ver",
      "Ġhe ard",
      "a ce",
      "Ġne ver",
      "t y",
      "Ġe ach",
      "Ġcould n",
      "Ġe at",
      "ĠW e",
      "b y",
      "d y",
      "Ġro om",
      "ĠA nna",
      "ĠE very",
      "ot her",
      "Ġp ret",
      "Ġp ick",
      "au se",
      "i on",
      "Ġplay ed",
      "M om",
      "a k",
      "Ġex pl",
      "et ter",
      "g e",
      "Ġg re",
      "Ġhug ged",
      "Ġj ust",
      "he re",
      "Ġc om",
      "Ġwa t",
      "ot h",
      "Ġof f",
      "Ġbo x",
      "Ġn ice",
      "Ġne ed",
      "' m",
      "Ġman y",
      "Ġst r",
      "Ġbec ause",
      "il e",
      "Ġsm all",
      "Ġb u",
      "Ġj o",
      "i z",
      "g ry",
      "Ġf o",
      "Ġl ong",
      "v ing",
      "u c",
      "in e",
      "im al",
      "Ġan imal",
      "Ġs n",
      "Ġbe ar",
      "or t",
      "Ġt ry",
      "oug h",
      "ur t",
      "Ġu nt",
      "s el",
      "il d",
      "Ġlearn ed",
      "Ġunt il",
      "s ed",
      "ĠJ ack",
      "Ġlo ve",
      "Ġk ind",
      "Ġb etter",
      "f t",
      "Ġfl ow",
      "Ġ im",
      "ĠM ia",
      "Ġc all",
      "Ġd on",
      "H e",
      "ur n",
      "Ġe nd",
      "u ll",
      "Ġb est",
      "e m",
      "ar s",
      "ad y",
      "Y es",
      "Ġc le",
      "ur p",
      "Ġa d",
      "ĠA nd",
      "a ut",
      "v ent",
      "re am",
      "v es",
      "ĠJ o",
      "Ġfa st",
      "Ġcare ful",
      "Ġ C",
      "ard en",
      "Ġg arden",
      "Ġbe aut",
      "T h",
      "b er",
      "Ġthan ked",
      "Ġf i",
      "Ġc he",
      "Ġsk y",
      "Å ĵ",
      "p t",
      "Ġb ra",
      "Ġe ven",
      "Ġj ump",
      "ĠS o",
      "i es",
      "Ġlaug hed",
      "I t",
      "ll y",
      "a se",
      "Ġb y",
      "Ġl oud",
      "Ġt e",
      "ĠH er",
      "sel f",
      "in y",
      "Ġg l",
      "Ġl ist",
      "w n",
      "le w",
      "Ġc ome",
      "Ġbeaut i",
      "Ġh ard",
      "Ġbeauti ful",
      "Ġh urt",
      "Ġwa y",
      "Ġst ill",
      "Ġw o",
      "Ġr a",
      "Ġlot s",
      "Ġanimal s",
      "Ġf am",
      "Ġu nder",
      "ĠThe n",
      "Ġl et",
      "Ġst ay",
      "n ing",
      "Ġ Ã¢",
      "ec t",
      "c t",
      "he s",
      "b e",
      "Ġb oth",
      "Ġc u",
      "Ġsa fe",
      "ĠF rom",
      "ĠH is",
      "Ġb ad",
      "Ġco l",
      "oo l",
      "Ġre m",
      "op le",
      "k ay",
      "Ġtw o",
      "re e",
      "o ck",
      "Ġb ook",
      "Ġim p",
      "Ġit s",
      "a st",
      "Ġli ved",
      "T im",
      "Ġsh ould",
      "an e",
      "re ss",
      "Ġan gry",
      "N o",
      "Ġbra ve",
      "is hed",
      "uc y",
      "urp r",
      "Ġwal ked",
      "ig h",
      "Ġf lew",
      "Ġr ed",
      "o b",
      "Ġpe ople",
      "Ġs urpr",
      "Ġfam ily",
      "W hen",
      "Ġf in",
      "Ġcall ed",
      "Ġso on",
      "Ġst or",
      "i p",
      "Ġf ly",
      "L et",
      "Ġsh are",
      "f ore",
      "Ġd an",
      "l ed",
      "Ġke pt",
      "x t",
      "Ġf ore",
      "h n",
      "dd ed",
      "is ed",
      "Ġp ic",
      "Ġdo or",
      "Ġro ck",
      "Ġgo ing",
      "Ġpret ty",
      "Ġcle an",
      "Ġ P",
      "ĠW hen",
      "B en",
      "âĤ¬ â",
      "Ġke ep",
      "Ġn ow",
      "Ġno ise",
      "Ġsh iny",
      "Ġdo ll",
      "Ġd ra",
      "um my",
      "Ġop ened",
      "Ġw ind",
      "ar y",
      "Ġad vent",
      "Ġc ry",
      "Ġre al",
      "Ġbe fore",
      "ag e",
      "Ġ ide",
      "Ġst o",
      "Ġc on",
      "Ġt urn",
      "s o",
      "Ġgr ound",
      "il ly",
      "i ed",
      "W hat",
      "le s",
      "Ġal so",
      "Ġexpl ore",
      "Ġf r",
      "Ġe y",
      "Ġf ar",
      "Ġide a",
      "Ġcol or",
      "T hat",
      "Ġno dded",
      "Ħ ¢",
      "âĤ¬â Ħ¢",
      "Ġha s",
      "Ġwa r",
      "o on",
      "t h",
      "o y",
      "im b",
      "Ġpick ed",
      "Ġu n",
      "Ġfeel ing",
      "Ġne xt",
      "Ġcl imb",
      "u ch",
      "t hing",
      "ĠD ad",
      "k es",
      "t ure",
      "Ġm a",
      "ĠL ucy",
      "Ġsmil e",
      "Ġwal king",
      "Ġwh ile",
      "e et",
      "ay be",
      "Ġth r",
      "Ġb ed",
      "Ġadvent ure",
      "Th ank",
      "g er",
      "Ġbe ing",
      "Ġg ive",
      "Ġtr uck",
      "Ġclo s",
      "Ġ G",
      "ic ed",
      "Ġw r",
      "Ġf ood",
      "Ġth ink",
      "f f",
      "t ed",
      "Ġd if",
      "Ġpic ture",
      "j oy",
      "i ous",
      "Ġto w",
      "Ġlist en",
      "ug ht",
      "Ġey es",
      "Ġb re",
      "a c",
      "Ġsto pped",
      "Ġd el",
      "ĠS p",
      "Ġbr o",
      "Ġa fter",
      "Ġloo king",
      "Ġwa it",
      "t ing",
      "Ġo wn",
      "Ġre pl",
      "Ġv o",
      "Ġwal k",
      "Ġsh out",
      "em ber",
      "Ġgre at",
      "Ġflow ers",
      "Ġhe ad",
      "Ġhand s",
      "Ġbl ue",
      "Ġwo nder",
      "ĠS uddenly",
      "Ġen joy",
      "Ġe ver",
      "S he",
      "S uddenly",
      "bb it",
      "ir st",
      "iz ed",
      "Ġne ar",
      "Ġimp ort",
      "Ġf ish",
      "Ġnot iced",
      "Ġqu ick",
      "Ġd is",
      "a ble",
      "Ġsl ide",
      "Ġfore st",
      "Ġs ound",
      "Ġa pp",
      "Ġu s",
      "Ġme an",
      "Ġd e",
      "ll ow",
      "Ġrem ember",
      "Ġr ain",
      "le ase",
      "ma z",
      "Ġwat ch",
      "Ġimport ant",
      "Ġas k",
      "Ġa maz",
      "Ġo kay",
      "Ġshow ed",
      "Ġwor k",
      "Ġra bbit",
      "bb ed",
      "Ġrepl ied",
      "by e",
      "Ġa c",
      "Ġst ick",
      "g an",
      "Ġbr ight",
      "Ġt al",
      "W e",
      "fe re",
      "Ġr ight",
      "Ġbo at",
      "Ġdif fere",
      "Ġstr ong",
      "d ay",
      "Ġevery one",
      "Ġfo llow",
      "Ġs qu",
      "Ġwat ched",
      "Ġt ra",
      "A nna",
      "Ġu se",
      "Ġ our",
      "Ġw here",
      "ĠSp ot",
      "er ed",
      "Ġy e",
      "Ġquick ly",
      "Ġy ell",
      "at h",
      "Ġm or",
      "S o",
      "Ġvo ice",
      "Ġbe en",
      "Ġfa ce",
      "ĠB ob",
      "Ġdo es",
      "ĠMom my",
      "L ook",
      "n g",
      "Ġh op",
      "an ge",
      "Ġ N",
      "Ġdiffere nt",
      "Ġa m",
      "Ġs ure",
      "Ġch ild",
      "Ġcu ri",
      "S ara",
      "Ġc r",
      "ĠS ue",
      "a ught",
      "Ġd ress",
      "Ġbec ame",
      "Ġgood bye",
      "Ġh igh",
      "Ġpl ace",
      "Ġm ag",
      "Ġclos er",
      "Ġst ore",
      "il a",
      "Ġ R",
      "Ġwar m",
      "Ġt ell",
      "Ġfor g",
      "nd ma",
      "Ġcuri ous",
      "Ġc ook",
      "le ep",
      "Ġc ake",
      "un ny",
      "J o",
      "m ore",
      "Ġany more",
      "a ss",
      "Ġbe l",
      "c o",
      "Ġfa v",
      "Ġbl ock",
      "ou nt",
      "Ġn ight",
      "Ġop en",
      "Ġp ull",
      "it c",
      "Ġf irst",
      "Ġhe re",
      "a ched",
      "ir ed",
      "Ġ z",
      "Ġth ree",
      "ĠT h",
      "Ġp u",
      "Ġb us",
      "H er",
      "im es",
      "Ġp ain",
      "is s",
      "Ġfe ll",
      "C an",
      "Ġbut ter",
      "Ġgra bbed",
      "Ġle a",
      "Ġsw eet",
      "Ġr u",
      "or n",
      "Ġk id",
      "Ġon ly",
      "Ġbird s",
      "Ġm on",
      "Ġjump ed",
      "is y",
      "itc hen",
      "Ġk itchen",
      "Ġse es",
      "Ġcon t",
      "Ġb a",
      "Ġb it",
      "Ġfi re",
      "Ġfl o",
      "Ġsa nd",
      "Ġhelp ed",
      "Ġst op",
      "Ġgl ad",
      "Ġhapp ened",
      "Ġs ing",
      "Ġt ri",
      "Ġgra ss",
      "Ġp er",
      "Ġshout ed",
      "ĠSara h",
      "Ġd r",
      "ĠD o",
      "ĠL et",
      "A fter",
      "nt s",
      "Ġbr other",
      "Ġbe h",
      "Ġre ached",
      "pp y",
      "Ġstor y",
      "a ir",
      "Ġreal ized",
      "Ġl ady",
      "Ġb unny",
      "Ġy ummy",
      "in s",
      "ĠJ ane",
      "Ġha ving",
      "Ġso ft",
      "ĠA s",
      "Ġat e",
      "Ġg ame",
      "' re",
      "ak es",
      "Ġunder st",
      "Ġh at",
      "Ġc re",
      "Ġm ess",
      "Ġfav or",
      "Ġl ess",
      "Ġre st",
      "ĠEvery one",
      "Ġpret end",
      "Ġm um",
      "Ġpr in",
      "Ġfavor ite",
      "Ġthr ough",
      "Ġre ady",
      "Ġdra w",
      "Ġp are",
      "z y",
      "Ġp ap",
      "w here",
      "Ġth ing",
      "ĠT hat",
      "Ġd uck",
      "Ġlook s",
      "ĠC an",
      "Ġmag ic",
      "k en",
      "Ġre ally",
      "at her",
      "Ġma king",
      "Ġc ut",
      "Ġhim self",
      "at er",
      "Ġbe gan",
      "Ġd one",
      "Ġwor ld",
      "Mom my",
      "ĠJo e",
      "fu lly",
      "Ġcom ing",
      "Ġt ired",
      "Ġp rom",
      "Ġbutter f",
      "Ġkid s",
      "Ġwa ved",
      "Ġpo nd",
      "Ġwh y",
      "Ġcar s",
      "b o",
      "Ġto uch",
      "W ow",
      "st er",
      "Ġwor ry",
      "Ġfi x",
      "Ġcat ch",
      "Ġst e",
      "Ġflow er",
      "Ġf ro",
      "Ġnam e",
      "Ġf ill",
      "Ġfun ny",
      "Ġp art",
      "Ġc ried",
      "u ff",
      "s h",
      "Ġse en",
      "Ġp us",
      "re l",
      "Ġm ouse",
      "Ġha ir",
      "Ġu sed",
      "Ġho ld",
      "Ġan other",
      "Ġdel ic",
      "i ent",
      "one y",
      "ig n",
      "o lly",
      "Ġblock s",
      "Ġta st",
      "Ġto p",
      "ed dy",
      "Ġgre en",
      "Ġc ool",
      "Ġpare nts",
      "a isy",
      "i ver",
      "Ġho pped",
      "Ġl ight",
      "m er",
      "h y",
      "ĠJo hn",
      "Ġthan k",
      "Ġsurpr ise",
      "Ġdo ing",
      "Ġless on",
      "ard s",
      "at ion",
      "Ġg i",
      "\" .",
      "Ġsw im",
      "Ġli kes",
      "A s",
      "D on",
      "Ġpap er",
      "Ġw ished",
      "Ġflo or",
      "Ġd ri",
      "Ġwind ow",
      "Ġbeh ind",
      "Tim my",
      "Ġb ag",
      "Ġsm ell",
      "Ġf ull",
      "Ġrun ning",
      "Ġw ood",
      "Ġd ro",
      "S am",
      "Ġc ra",
      "Ġd ark",
      "Ġtre es",
      "Ġre ad",
      "Ġwor ked",
      "Ġb ow",
      "Ġsh o",
      "Ġyell ow",
      "i ke",
      "Ġd in",
      "u l",
      "Ġsp ot",
      "and y",
      "Ġs leep",
      "u ed",
      "Ġ -",
      "Ġye ars",
      "re n",
      "Ġho le",
      "Ġs at",
      "Ġhapp ily",
      "Ġsw ing",
      "ar ing",
      "Ġlaug h",
      "Jo hn",
      "el y",
      "Ġs et",
      "Ġsl ow",
      "ĠI n",
      "Ġbutterf ly",
      "Ġsurpr ised",
      "Ġco ld",
      "Ġhe ld",
      "Ġfro g",
      "Ġcare fully",
      "re w",
      "Ġremember ed",
      "H ell",
      "Hell o",
      "Ġlo st",
      "Ġ ice",
      "Ġbu y",
      "Ġneed ed",
      "u it",
      "on s",
      "Ġmo ve",
      "Ġany thing",
      "Ġhe ar",
      "Ġle ft",
      "Ġwr ong",
      "Ġt all",
      "Ġfa ir",
      "Ġper f",
      "Ġd ream",
      "Ġenjoy ed",
      "Ġfollow ed",
      "re ed",
      "Ġh un",
      "Ġa ir",
      "Ġta ble",
      "Ġar ri",
      "Ġsn ow",
      "en s",
      "Ġe l",
      "in ally",
      "Ġd ir",
      "c ess",
      "Ġfin ished",
      "Ġchild ren",
      "Ġh ill",
      "Ġh ot",
      "ro ss",
      "Ġfriend ly",
      "Ġbook s",
      "Ġher self",
      "Ġunderst and",
      "Ġp lease",
      "Ġclo se",
      "Ġcont in",
      "d s",
      "Ġdelic ious",
      "ĠA fter",
      "in ed",
      "Ġh id",
      "Ġar m",
      "Ġm ight",
      "Ġb ug",
      "Ġforg ot",
      "Ġel se",
      "s p",
      "l f",
      "Ġc ast",
      "Ġcolor s",
      "Ġarri ved",
      "Ġre l",
      "ie ld",
      "ĠL ila",
      "Ġba by",
      "Ġbu ild",
      "Ġg ent",
      "Ġbro ken",
      "Ġwonder ful",
      "Ġt ight",
      "ĠD aisy",
      "Ġa ble",
      "Ġs ong",
      "Ġsqu ir",
      "Ġm at",
      "Ġg one",
      "ĠN ow",
      "ĠBen ny",
      "The n",
      "as ure",
      "a v",
      "Ġfill ed",
      "n er",
      "Ġwant s",
      "ĠS ally",
      "Ġwa ll",
      "Ġcre at",
      "Ġp at",
      "O K",
      "Ġsome one",
      "Ġag reed",
      "ro om",
      "Ġlea ves",
      "Ġsquir rel",
      "as k",
      "Ġy es",
      "i ch",
      "Ġp ink",
      "Ġcontin ued",
      "Ġc ount",
      "J ack",
      "ĠThe re",
      "e y",
      "' ll",
      "e e",
      "ĠE m",
      "Ġli on",
      "Ġv is",
      "am a",
      "Ġbre ak",
      "Ġen ough",
      "F rom",
      "ĠTom my",
      "Ġmom ent",
      "Ġget ting",
      "Ġmor ning",
      "Ġpo in",
      "Ġstay ed",
      "ĠM aybe",
      "Ġfin ally",
      "Ġf all",
      "ri es",
      "as h",
      "Ġcook ies",
      "a pp",
      "Ġsc ary",
      "r ow",
      "Ġgra ndma",
      "Ġhun gry",
      "an ce",
      "Ġj u",
      "g on",
      "Ġturn ed",
      "Ġsomet imes",
      "Ġf ight",
      "ic y",
      "Ġw et",
      "Ġbe ach",
      "Ġp i",
      "Ġm akes",
      "Ġtry ing",
      "Ġsmil es",
      "ĠTh is",
      "o om",
      "Ġfe w",
      "ĠW hat",
      "Ġother s",
      "Ġamaz ing",
      "a pped",
      "Ġcom p",
      "Ġclimb ed",
      "Ġdin ner",
      "c ed",
      "r ed",
      "Ġc ream",
      "Ġlist ened",
      "Th is",
      "Ġm other",
      "Ġpicture s",
      "Ġ K",
      "Ġcast le",
      "Ġm et",
      "Ġtal k",
      "ke y",
      "r ot",
      "A t",
      "ou p",
      "Ġperf ect",
      "Ġf ur",
      "Ġmu s",
      "H is",
      "Ġcl ot",
      "Ġdad dy",
      "Ġwh ite",
      "l c",
      "Ġta il",
      "Ġpu ppy",
      "or ing",
      "Ġclot hes",
      "Ġm ar",
      "ct or",
      "Ġball oon",
      "m an",
      "Ġp et",
      "Ġsa il",
      "am p",
      "Ġask s",
      "Ġal one",
      "ĠG ra",
      "Ġpo l",
      "Ġjo y",
      "ĠB illy",
      "en ce",
      "O h",
      "uff y",
      "Ġsp l",
      "Ġwas n",
      "Ġbr ought",
      "Ġs it",
      "is ter",
      "at ed",
      "Ġsp ark",
      "Ġwood s",
      "Ġpull ed",
      "d er",
      "ĠT o",
      "Ġevery thing",
      "Ġstr ange",
      "uck y",
      "Ġde ep",
      "Ġse ar",
      "Ġgr ow",
      "Ġdan ger",
      "Ġwa ited",
      "w l",
      "et er",
      "ot t",
      "ĠJ en",
      "Ġpl an",
      "Ġr ide",
      "Ġw on",
      "Ġvis it",
      "Ġro ll",
      "Ġp ie",
      "Ġh ide",
      "Ġfo x",
      "ow er",
      "Ġle ave",
      "Ġamaz ed",
      "Ġtre at",
      "an g",
      "m e",
      "z z",
      "e ver",
      "o s",
      "m ed",
      "Ġmus ic",
      "Ġt eddy",
      "Ġtow ards",
      "Ġrun s",
      "Ġcl oud",
      "Ġs illy",
      "ĠA my",
      "Ġfly ing",
      "M ax",
      "Ġthink s",
      "M aybe",
      "Ġsh ap",
      "Ġp en",
      "Ġli ving",
      "Ġla nd",
      "Ġsh ared",
      "Ġp re",
      "Ġf ield",
      "Ġprom ised",
      "g s",
      "am es",
      "ug g",
      "th y",
      "Ġown er",
      "ain ed",
      "O kay",
      "Ġqu i",
      "op e",
      "is es",
      "Ġg u",
      "Ġr ace",
      "Ġp a",
      "Ġjo b",
      "ig g",
      "ck et",
      "Ġbel ie",
      "Ġl ake",
      "Ġs ide",
      "Ġpain t",
      "Ġm oney",
      "o l",
      "Ġmor al",
      "or m",
      "ĠJ im",
      "Ġs ister",
      "Ġqui et",
      "c le",
      "Ġs ec",
      "u ally",
      "Ġfast er",
      "Ġwe ar",
      "av y",
      "Ġpart y",
      "Ġmu st",
      "Ġbr an",
      "Ġwor ried",
      "Ġcolor ful",
      "u p",
      "ec es",
      "Ġslow ly",
      "s w",
      "Ġpi eces",
      "un ch",
      "Ġan sw",
      "Ġgr ate",
      "Ġg if",
      "Ġbro ke",
      "Ġcu p",
      "i x",
      "as ed",
      "Ġwe lc",
      "l ing",
      "Ġb ott",
      "Ġtra in",
      "Ġdan ce",
      "Ġc andy",
      "Ġgrate ful",
      "Ġbl ank",
      "Ġbig ger",
      "Ġre ach",
      "Ġb ike",
      "z e",
      "Ġe le",
      "Ġpl ant",
      "Ġs uch",
      "p h",
      "Ġpr o",
      "f ort",
      "Ġch o",
      "Ġmon ster",
      "ĠA ll",
      "Ġblank et",
      "Ġbl ack",
      "Ġsc ream",
      "le ss",
      "Ġtre asure",
      "Ġsm art",
      "i re",
      "Ġmagic al",
      "Ġ ve",
      "Ġb ar",
      "Ġsn ack",
      "Ġdanger ous",
      "Ġr iver",
      "out h",
      "Ġw in",
      "Ġn ap",
      "Ġp ot",
      "S ure",
      "Ġevery where",
      "Ġm outh",
      "Ġe m",
      "Ġjo in",
      "Ġdoll s",
      "Ġtow er",
      "Ġhelp ing",
      "Ġdra gon",
      "Ġprin cess",
      "i pped",
      "e ar",
      "Ġmo st",
      "Ġj e",
      "Ġac ross",
      "Ġdo ctor",
      "m ing",
      "Ġmon key",
      "d e",
      "Ġs ign",
      "Ġfar mer",
      "Ġdir ty",
      "Ġbe e",
      "Ġth rew",
      "Ġdis app",
      "s et",
      "W hy",
      "Ġtw ins",
      "Ġwor ds",
      "H i",
      "Ġhe avy",
      "Ġfr uit",
      "ĠDad dy",
      "Ġste pped",
      "or ed",
      "Ġcry ing",
      "Ġcar rot",
      "Ġb ite",
      "Ġbow l",
      "Ġhe al",
      "Ġsa me",
      "e ared",
      "ĠF l",
      "Ġhop ed",
      "b ble",
      "M ia",
      "e re",
      "Ġsp r",
      "Ġh ig",
      "Ġp ass",
      "Ġclo sed",
      "Ġst re",
      "ck ed",
      "id ent",
      "Ġwould n",
      "Ġbelie ve",
      "Ġst uck",
      "Ġac c",
      "ask et",
      "Ġhe art",
      "Ġb asket",
      "Ġb ath",
      "Ġto wn",
      "ĠJ ill",
      "Ġte ac",
      "ĠM r",
      "Ġb uck",
      "Ġfeel s",
      "ch ool",
      "ĠM olly",
      "Ġbut t",
      "Ġat t",
      "Ġc our",
      "Ġco ll",
      "Ġm ix",
      "it ing",
      "Ġbr own",
      "Ġcr ay",
      "Ġeat ing",
      "Ġs chool",
      "Ġfair y",
      "Ġch air",
      "or d",
      "Ġpus hed",
      "Ġcour se",
      "Ġs uddenly",
      "Ġp ack",
      "Ġp ers",
      "Ġcl apped",
      "pp ing",
      "Ġne igh",
      "Ġgent le",
      "Ġm in",
      "vent ually",
      "Ġhig her",
      "Ġh it",
      "or row",
      "Ġwith out",
      "Ġneigh b",
      "Ġwelc ome",
      "t s",
      "is sed",
      "Ġst and",
      "Ġto day",
      "Ġy ard",
      "Ġdro ve",
      "Ġteac her",
      "Ġpo cket",
      "Ġsm o",
      "Ġsw ings",
      "our n",
      "i er",
      "Ġw ings",
      "Ġj ourn",
      "or s",
      "Ġno ises",
      "Ġche ered",
      "Ġfor get",
      "um b",
      "b r",
      "Ġg ames",
      "Ġne ck",
      "Ġb en",
      "h o",
      "Ġturn s",
      "Ġpie ce",
      "Ġf ree",
      "ra ct",
      "ve l",
      "Ġlong er",
      "L ila",
      "F inally",
      "Ġd ry",
      "Ġsa ng",
      "Ġhug s",
      "Ġexpl ained",
      "Ġal ong",
      "Ġacc ident",
      "Ġhapp en",
      "Ġsho es",
      "Ġthr ow",
      "e ad",
      "i ble",
      "ou n",
      "ph ant",
      "c y",
      "Ġin st",
      "Ġc orn",
      "Ġl ate",
      "Ġwe ll",
      "itt ing",
      "c hes",
      "Ġl on",
      "Ġm iss",
      "Ġse a",
      "Ġtr ou",
      "Ġyou ng",
      "m ent",
      "Ġw ish",
      "Ġsh ook",
      "Ġstor ies",
      "Ġsing ing",
      "Ġsec ret",
      "ĠM ary",
      "Ġlon ely",
      "Ġf ence",
      "Ġadventure s",
      "Ġele phant",
      "Ġp urp",
      "Ġmo ved",
      "ap e",
      "Ġl unch",
      "Ġst ar",
      "Ġc aught",
      "Ġd ist",
      "Ġw he",
      "e k",
      "Ġup set",
      "aught y",
      "Ġrock s",
      "bb y",
      "Ġst ars",
      "Ġn aughty",
      "Ġto m",
      "Ġm ine",
      "Ġpl ac",
      "Ġp h",
      "Ġbel ong",
      "D o",
      "ount ain",
      "Ġapp le",
      "ĠGra ndma",
      "Ġnear by",
      "fu sed",
      "Ġs oup",
      "y ard",
      "Ġstre et",
      "Ġbr ing",
      "ock ed",
      "Ġdro pped",
      "c es",
      "a il",
      "Ġpurp le",
      "Ġw ise",
      "Ġor ange",
      "Ġke y",
      "Ġback yard",
      "Ġta king",
      "Ġo wl",
      "Ġexpl oring",
      "Ġbuck et",
      "Ġsh op",
      "Ġj ar",
      "Ġp ast",
      "b ow",
      "u b",
      "Ġex p",
      "Ġsw am",
      "ll o",
      "Ġshap es",
      "Ġdr ink",
      "Ġ es",
      "w ard",
      "Ġin v",
      "ĠEm ma",
      "Ġb at",
      "Ġfar m",
      "Ġsee med",
      "Ġye ar",
      "Ġc a",
      "aught er",
      "Ġrel ie",
      "Ġre sp",
      "Ġma il",
      "ĠTh ank",
      "un g",
      "ad ow",
      "Ġst u",
      "s y",
      "Ġbus y",
      "Ġta kes",
      "Ġben ch",
      "us h",
      "Ġwo ke",
      "es e",
      "Ġnot hing",
      "Ġm ad",
      "Ġa f",
      "ion s",
      "Ġsound s",
      "A nd",
      "Ġth ough",
      "Ġju ice",
      "Ġno se",
      "Ġ 3",
      "Ġarm s",
      "ĠFl uffy",
      "Ġt iny",
      "Ġc ow",
      "Ġc ou",
      "Ġcom es",
      "it y",
      "Ġn est",
      "Ġd es",
      "f ish",
      "c ing",
      "Ġ O",
      "co l",
      "Ġwonder ed",
      "Ġhold ing",
      "Ġrain bow",
      "w eet",
      "Ġm ark",
      "Ġs itting",
      "Ġd aughter",
      "Ġp ig",
      "Ġbran ch",
      "Ġf it",
      "Ġc ir",
      "in ing",
      "th day",
      "Ġs ick",
      "t o",
      "Ġb oun",
      "re ad",
      "ĠIn side",
      "ra id",
      "Ġaf raid",
      "Ġo b",
      "o se",
      "Ġdri ver",
      "Ġr ound",
      "Ġco at",
      "Ġpat ient",
      "Ġm il",
      "Ġli ft",
      "Ġgif t",
      "pp er",
      "Ġfore ver",
      "Ġcut e",
      "Ġcar ry",
      "Ġpe ace",
      "id ge",
      "ver ed",
      "Ġk ing",
      "Ġhug e",
      "Ġrelie ved",
      "itt ens",
      "Ġprom ise",
      "Ġto u",
      "Ġl etter",
      "Ġtou ched",
      "Ġk ite",
      "Ġsp oon",
      "our s",
      "Ġbre ad",
      "O f",
      "ĠC ome",
      "Ġb and",
      "Ġche ese",
      "Ġhe llo",
      "st ing",
      "Ġf ing",
      "et h",
      "Ġbir thday",
      "Ġwh ist",
      "le t",
      "Ġp ower",
      "o g",
      "Ġgra b",
      "ĠF inally",
      "Ġexc iting",
      "Ġswim ming",
      "c er",
      "Ġint ere",
      "Ġa ct",
      "Ġjourn ey",
      "bo ard",
      "Ġshe ll",
      "Ġday s",
      "Ġon to",
      "He y",
      "ĠM ama",
      "u nt",
      "Ġlaug hing",
      "Ġg igg",
      "Ġw ra",
      "Ġk ick",
      "s c",
      "sh ine",
      "Ġli fe",
      "Ġsun ny",
      "Ġw om",
      "g g",
      "Ġcreat ure",
      "Ġre t",
      "Ġwom an",
      "Ġcom fort",
      "g ged",
      "Ġm ist",
      "it ch",
      "Ġhop e",
      "Ġbus h",
      "ar p",
      "Ġdis co",
      "Ġmil k",
      "Ġput s",
      "Ġbott le",
      "Ġl ucky",
      "Ġsp in",
      "al m",
      "Ġco zy",
      "Ġgi ves",
      "p ed",
      "ĠSam my",
      "Tom my",
      "Ġsun shine",
      "Ġe ar",
      "Ġpoin ted",
      "Ġcoll ect",
      "Ġret urn",
      "Ġduck s",
      "n ess",
      "Ġp udd",
      "t en",
      "Ġim ag",
      "Ġinst ead",
      "Ġsh arp",
      "ĠSo on",
      "Ġin c",
      "Ġwatch ing",
      "Ġaccident ally",
      "Ġe as",
      "Ġro ad",
      "Ġc ave",
      "Ġf an",
      "Ġsmil ing",
      "Ġl ater",
      "el s",
      "L ater",
      "Ġs uc",
      "Ġh oney",
      "Ġany one",
      "Ġsp o",
      "b all",
      "Ġg ather",
      "Ġpers on",
      "Ġb ought",
      "Ġ ent",
      "ble m",
      "Ġpro blem",
      "Ġh or",
      "iz e",
      "B ob",
      "r ound",
      "itt en",
      "Ġtal ked",
      "Ġheal thy",
      "Ġsear ched",
      "G ood",
      "p a",
      "Ġc e",
      "Ġsand w",
      "Ġapp les",
      "ck s",
      "Ġtrou ble",
      "Ġlo ves",
      "Ġs u",
      "Ġr ope",
      "Ġme et",
      "Ġtast y",
      "ir t",
      "Ġbutt on",
      "Ġcloud s",
      "ĠT weet",
      "Ġintere sting",
      "Ġm ach",
      "Ġp op",
      "on t",
      "Ġcle ver",
      "e b",
      "Ġk iss",
      "Ġpl ane",
      "Ġcray ons",
      "Ġsmell ed",
      "o ve",
      "am ed",
      "Ġz oom",
      "Ġmat ter",
      "Ġw ide",
      "Ġp ar",
      "Ġp ile",
      "Ġsh ining",
      "Ġstor m",
      "Ġv ill",
      "Ġad m",
      "Åĵ I",
      "ow ed",
      "L ucy",
      "a ur",
      "Ġfr ont",
      "Ġfe ather",
      "Ġor gan",
      "Ġp ath",
      "ĠW ith",
      "ĠE ll",
      "Ġpr ot",
      "Ġpre s",
      "Ġsp id",
      "ĠJim my",
      "Ġe ag",
      "Ġscream ed",
      "Ġspot ted",
      "Ġprot ect",
      "Ġresp ect",
      "Ġmu d",
      "Ġp ract",
      "Ġas leep",
      "er ly",
      "ep end",
      "oo se",
      "C ome",
      "Ġsnow man",
      "Ġpu zz",
      "Ġz oo",
      "a le",
      "nd pa",
      "Ġv al",
      "Ġc ard",
      "Ġsa f",
      "Ġa p",
      "Ġb ark",
      "Ġlove ly",
      "Ġneighb or",
      "e x",
      "Ġsn ake",
      "Ġqu est",
      "Ġw ild",
      "e en",
      "Ġapp eared",
      "Ġte ach",
      "Ġansw er",
      "is a",
      "Ġs ur",
      "Ġh on",
      "Ġse at",
      "ĠS omet",
      "Ġmy ster",
      "Ġwh ich",
      "Ġdan ced",
      "J ust",
      "o nd",
      "er t",
      "Ġmin ut",
      "Ġche er",
      "Ġpres ent",
      "Ġgo es",
      "J im",
      "Ġgent ly",
      "S t",
      "Ġp ill",
      "Ġtri p",
      "Ġth in",
      "ch ing",
      "Ġhor se",
      "Ġwho le",
      "Ġtri es",
      "Ġm ed",
      "Ġwe aring",
      "Ġgi ant",
      "Ġforg ive",
      "Ġd i",
      "Ġsh r",
      "Ġplac es",
      "Ġcon fused",
      "Ġm ind",
      "ul ar",
      "M olly",
      "Ġdir t",
      "Ġsl id",
      "Ġimp ress",
      "Ġru de",
      "E very",
      "Ġph one",
      "Ġroll ed",
      "Ġte eth",
      "ĠM ittens",
      "Ġcorn er",
      "M um",
      "ĠG o",
      "Ġsp ent",
      "ce an",
      "Ġwor m",
      "Ġo cean",
      "Ġli ve",
      "Ġtast ed",
      "I n",
      "itt y",
      "ss ed",
      "Ġch ick",
      "Ġfa ces",
      "Ġdri ve",
      "Ġspl as",
      "Ġsu pp",
      "ĠH ow",
      "Ġre c",
      "Ġas h",
      "iz z",
      "Ġc alm",
      "Ġl ay",
      "n ic",
      "ĠEm ily",
      "Ġmach ine",
      "Ġpretend ed",
      "Ġs er",
      "Ġl ad",
      "Ġp our",
      "Ġdel ight",
      "l a",
      "Ġpic nic",
      "Ġfe et",
      "on es",
      "Ġwa ve",
      "Ġo ven",
      "Ġla st",
      "Ġfur ry",
      "Ġp an",
      "Ġcook ie",
      "Ġr ing",
      "Ġsa ck",
      "Ġtom orrow",
      "Ġpus h",
      "Ġw ip",
      "un k",
      "Ġspid er",
      "Ġhelp ful",
      "Ġem b",
      "Ġco in",
      "Ġbu bble",
      "Ġrem ind",
      "ĠC h",
      "Ġcou ch",
      "Ġbuild ing",
      "at o",
      "Ġb an",
      "Ġneck l",
      "Ġbe ll",
      "Ġc art",
      "Ġe ventually",
      "Ġ ign",
      "Ġlad der",
      "um ber",
      "at or",
      "Ġsa l",
      "Ġst ret",
      "Ġkne e",
      "Ġt un",
      "Ġsp read",
      "Ġcho col",
      "Ġsmo oth",
      "Ġb lew",
      "Ġbug s",
      "Ġtoo l",
      "Ġro b",
      "h ile",
      "Ġtal king",
      "Ġt id",
      "Ġm ountain",
      "ar ge",
      "Ġs el",
      "if e",
      "Ġch ased",
      "Ġsh y",
      "al s",
      "Ġhid ing",
      "ar ra",
      "Ġfo ot",
      "Ġpudd le",
      "Ġemb arra",
      "Ġvill age",
      "m o",
      "ig hed",
      "Ġwr ite",
      "Ġwait ing",
      "S oon",
      "Ġlea f",
      "Ġfight ing",
      "Ġfin ish",
      "n ot",
      "Ġsong s",
      "Ġfo ld",
      "Ġw ore",
      "Ġwhen ever",
      "Ġp ool",
      "Ġcan not",
      "Ġa nt",
      "Ġst ep",
      "M y",
      "ĠJen ny",
      "Ġh um",
      "Ġtreat s",
      "Ġn et",
      "Ġpa w",
      "Ġchocol ate",
      "Ġc ross",
      "le x",
      "Ġc oo",
      "Ġcl oth",
      "ĠJ ust",
      "Ġrob ot",
      "ĠSomet imes",
      "Ġsel fish",
      "Ġtast e",
      "op h",
      "Ġbar ked",
      "Ġban an",
      "bo x",
      "Ġneckl ace",
      "Ġpeace ful",
      "Ġm aybe",
      "ump y",
      "l ice",
      "Ġst ra",
      "ĠS t",
      "Ġfix ed",
      "ul t",
      "Ġstr ing",
      "ĠL e",
      "Ġl arge",
      "ĠEvery where",
      "ig er",
      "Ġshe lf",
      "Ġst ir",
      "ĠP lease",
      "Ġtid y",
      "P lease",
      "Ġwas h",
      "Ġso l",
      "Ġsp e",
      "ell y",
      "h nn",
      "Ġg en",
      "M ama",
      "Ġp le",
      "o ld",
      "Ġcol our",
      "Ġspr ay",
      "le br",
      "Ġre p",
      "D ad",
      "Ġ '",
      "Ġce lebr",
      "ung le",
      "ir d",
      "Ġst one",
      "Ġj ungle",
      "Ġcreat ive",
      "ĠJ ake",
      "Ġcarrot s",
      "Ġembarra ssed",
      "o in",
      "air s",
      "N ow",
      "ur se",
      "ar m",
      "Ġwhist le",
      "hnn y",
      "Ġcra b",
      "Ġd eter",
      "Ġwh is",
      "Ġsc ar",
      "Ġjump ing",
      "Ġstick s",
      "Ġfor ward",
      "or ry",
      "Ġm issed",
      "Ġhe ars",
      "Ġpl ate",
      "Ġdeter m",
      "ĠT V",
      "ĠThe ir",
      "Ġtr ust",
      "Ġland ed",
      "Ġkn ocked",
      "Ġhe l",
      "Ġsh aring",
      "Ġdec or",
      "mo st",
      "ĠS ome",
      "Ġsh irt",
      "Ġle gs",
      "get able",
      "Ġdisapp oin",
      "Ġte a",
      "Ġtell s",
      "Ġmo on",
      "Ġem p",
      "Ġve getable",
      "n ed",
      "Ġemp ty",
      "Ġal most",
      "ĠD on",
      "Ġgr ay",
      "g round",
      "et s",
      "Ġme adow",
      "Ġgen er",
      "Ġs our",
      "Sara h",
      "Ġbre ath",
      "Ġspl ash",
      "Ġash amed",
      "Ġgre w",
      "Ġme ant",
      "y ing",
      "Ġtight ly",
      "B e",
      "i an",
      "ĠA nn",
      "ĠL isa",
      "a king",
      "d ge",
      "Ġwhis p",
      "Ġno ds",
      "Ġg as",
      "d le",
      "T o",
      "Ġ On",
      "Ġunderst ood",
      "Ġsa ve",
      "Ġpol ice",
      "Ġje w",
      "Ġthe se",
      "Ġg un",
      "Ġst ood",
      "Ġyell ed",
      "it al",
      "Ġhon est",
      "ĠW hy",
      "Ġb al",
      "er p",
      "Ġcar ried",
      "Ġshe ep",
      "d en",
      "Ġdisappoin ted",
      "Ġsp icy",
      "er ry",
      "ar l",
      "Ġho sp",
      "Ġsnack s",
      "Ġsuc cess",
      "Ġhosp ital",
      "Ġh ours",
      "Ġk itten",
      "Ġn ut",
      "Ġgo ld",
      "Ġl ine",
      "Ġp ay",
      "Ġsee k",
      "Ġpill ow",
      "ĠT eddy",
      "Ġb ored",
      "v ous",
      "Ġt est",
      "St op",
      "an o",
      "Ġspark ly",
      "or k",
      "ust r",
      "Ġle m",
      "Ġpower ful",
      "Ġ Z",
      "Ġp izz",
      "Ġj elly",
      "Ġhid den",
      "Ġsh ore",
      "W here",
      "Ġgener ous",
      "o bby",
      "Ġfe ar",
      "Ġpuzz le",
      "Ġsh ip",
      "bo dy",
      "k in",
      "Ġwa ves",
      "Ġreturn ed",
      "ĠR ex",
      "Ġgl ass",
      "Ġplant s",
      "Ġstand ing",
      "Ġd rew",
      "ĠB e",
      "Ġeas y",
      "Ġcl ass",
      "ĠTo gether",
      "ĠE ven",
      "Ġse ed",
      "Ġm ot",
      "Ġta ught",
      "Ġs ighed",
      "Ġknow ing",
      "Ġp in",
      "Ġbed room",
      "in a",
      "Ġfe ed",
      "Ġfr ustr",
      "Ġgr oup",
      "on y",
      "au l",
      "Ġclos et",
      "if f",
      "ĠM um",
      "' d",
      "Ġbl ow",
      "Ġche w",
      "Ġh ur",
      "Ġv an",
      "Ġsleep y",
      "h in",
      "c les",
      "Ġdeterm ined",
      "itt er",
      "Ġr ad",
      "Ġmyster ious",
      "The re",
      "Ġn er",
      "J ane",
      "Ġmess y",
      "Ġpizz a",
      "Ġk issed",
      "ĠP eter",
      "Ġfan cy",
      "Ġc ries",
      "Ġminut es",
      "Ġthank ful",
      "g ly",
      "Ġpo or",
      "Ġb urn",
      "Ġte ars",
      "Ġpol ite",
      "Ġner vous",
      "Ġso ld",
      "Ġha ng",
      "Ġfing er",
      "Ġg ate",
      "Ġf ig",
      "Ġu gly",
      "Ġa v",
      "Ġscar f",
      "Ġcr own",
      "w ork",
      "oo p",
      "Ġp ri",
      "Ġyour self",
      "Ġgr umpy",
      "er a",
      "Ġt ick",
      "erp ill",
      "Ġcat erpill",
      "Ġes c",
      "Ġw is",
      "ot e",
      "p ack",
      "Ġprin ce",
      "S orry",
      "us ie",
      "Ġfrustr ated",
      "Ġgather ed",
      "Ġsandw ich",
      "A re",
      "a f",
      "Ġwo lf",
      "Ġbr idge",
      "Ġtw irl",
      "Ġpass ed",
      "Ġp ir",
      "Ġho pping",
      "Ġexc ite",
      "Ġspo il",
      "id dle",
      "Ġdr op",
      "Ġsc r",
      "Ġre g",
      "oo f",
      "f l",
      "Ġof ten",
      "m b",
      "Ġlo ck",
      "os aur",
      "Ġle g",
      "Ġb oring",
      "Ġfl ag",
      "Ġm ummy",
      "Ġv ase",
      "ens ive",
      "Ġche st",
      "Ġt ent",
      "Ġexp ensive",
      "Ġl it",
      "ill ed",
      "sel ves",
      "s ist",
      "Ġansw ered",
      "Ġf il",
      "The ir",
      "Ġtr ue",
      "iz zy",
      "Ġdin osaur",
      "Ġcaterpill ar",
      "Ġdan cing",
      "Ġcl own",
      "Ġwa gged",
      "Ġc and",
      "ell a",
      "iss ors",
      "Ġwor king",
      "Ġta ken",
      "Ġget s",
      "Ġm ir",
      "Ġsa ved",
      "Ġde er",
      "Ġexcite ment",
      "u al",
      "Ġp ress",
      "ĠLe o",
      "Ġsp end",
      "Ġpick s",
      "Ġwa nder",
      "Ġsc issors",
      "Ġm iddle",
      "Ġcomfort able",
      "u ce",
      "W ho",
      "Ġon es",
      "Ġrock et",
      "Ġmist ake",
      "Ġfruit s",
      "Ġbo ss",
      "Ġt ie",
      "l ight",
      "Ġpack ed",
      "Ġgigg led",
      "Ġ OK",
      "Ġmed ic",
      "r or",
      "Ġb one",
      "eci ally",
      "ĠB r",
      "s er",
      "Ġple ased",
      "Ġst uff",
      "Ġmo v",
      "Ġkn ight",
      "Ġvegetable s",
      "Ġas king",
      "qu e",
      "Ġd est",
      "at es",
      "Ġbr ush",
      "Ġs ight",
      "Ġo k",
      "Ġdog s",
      "Ġwalk s",
      "g gs",
      "Ġa dd",
      "Ġmedic ine",
      "in ess",
      "Ġwe ak",
      "ot s",
      "Ġn umber",
      "S p",
      "Ġc ap",
      "Ġe ggs",
      "p ecially",
      "Ġes pecially",
      "us hed",
      "Ġch ange",
      "ug ar",
      "Ġwhe el",
      "ĠB l",
      "Ġdist ance",
      "h a",
      "Ġf ake",
      "Ġplay ground",
      "Ġla zy",
      "ĠJo hnny",
      "Ġmat ch",
      "Ġmo ving",
      "Ġli cked",
      "Ġsweet ie",
      "Ġfeather s",
      "Ġsmell y",
      "Ġlo se",
      "Ġcall ing",
      "ag ed",
      "Ġtw ist",
      "Ġcl ap",
      "Ġl ying",
      "Ġgl ue",
      "Ġfl ut",
      "Ġdraw ing",
      "Jim my",
      "Ġcra wl",
      "Ġg ar",
      "Ġs ugar",
      "Ġ No",
      "Ġbec ome",
      "Ġex am",
      "Ġdisapp eared",
      "Ġh orn",
      "Ġmir ror",
      "Ġdr um",
      "Ġe ld",
      "ĠI f",
      "Ġball s",
      "Ġb ake",
      "Ġyour s",
      "et e",
      "Ġqu een",
      "Ġfl uffy",
      "el p",
      "Ġwe ek",
      "Ġsplas hed",
      "Ġno d",
      "Ġru ined",
      "at ing",
      "Ġcr ack",
      "Ġd ish",
      "M e",
      "Ġbo dy",
      "or y",
      "Ġdr ank",
      "Ġbath room",
      "Ġle ad",
      "Ġme asure",
      "Ġt ape",
      "Ġc ri",
      "Ġse ll",
      "Ġfam ous",
      "Ġno isy",
      "Ġr id",
      "Ġst ones",
      "Ġinc red",
      "Ġm ic",
      "Ġrel ax",
      "Ġlem on",
      "Ġsk ipped",
      "Ġ ed",
      "ugg est",
      "Ġs uggest",
      "Ġc age",
      "Ġquest ions",
      "in ation",
      "Ġpr ay",
      "h ip",
      "Ġro ar",
      "Ġwr ote",
      "Ġco vered",
      "Jo e",
      "Ġex t",
      "Ġcle ar",
      "Ġju icy",
      "y al",
      "S ally",
      "Ġor d",
      "Ġcont ent",
      "Ġche ck",
      "Ġdec ide",
      "Ġchick en",
      "Ġ ind",
      "ee z",
      "B illy",
      "H elp",
      "Ġd ig",
      "ill i",
      "Ġeag er",
      "Ġt iger",
      "Ġboy s",
      "Ġr are",
      "Ġmom s",
      "ĠA t",
      "Ġsail ed",
      "J ill",
      "Ġsho ot",
      "Ġbo ard",
      "Ġte am",
      "Ġmot or",
      "Ġshow s",
      "Ġincred ible",
      "Ġr ich",
      "en ny",
      "Ġgl ow",
      "?\" .",
      "al ous",
      "Ġsw an",
      "Ġfig ure",
      "Ġf is",
      "im p",
      "Ġclean ed",
      "umb led",
      "Ġf ine",
      "Ġf ather",
      "Ġbran ches",
      "Ġje alous",
      "Ġeld erly",
      "Ġhurt s",
      "Ġneed s",
      "Ġorgan ized",
      "Ġlo yal",
      "Ġext ra",
      "Ġtow el",
      "Ġb orrow",
      "Ġadvent ur",
      "Ġa w",
      "Ġbubble s",
      "Ġl amp",
      "ĠE nd",
      "Ġjo ke",
      "Ġmo d",
      "Ġso ap",
      "Ġco ins",
      "ĠL ittle",
      "Ġadventur ous",
      "Ġreal ised",
      "Ġfr own",
      "Ġt ag",
      "Ġha m",
      "G ra",
      "Ġdisco vered",
      "l and",
      "W ell",
      "at ely",
      "as ing",
      "t i",
      "Ġgar age",
      "Ġoff ered",
      "Ġstra w",
      "f ic",
      "Ġhappen ing",
      "Ġlift ed",
      "i pp",
      "Ġco st",
      "ke ep",
      "Ġon ce",
      "Ġm ap",
      "Ġwh ale",
      "i pper",
      "im ed",
      "Ġwa nd",
      "Ġmight y",
      "Ġloud er",
      "Ġco ver",
      "Ġgu ess",
      "Ġwor d",
      "Ġdif fic",
      "w led",
      "Ġcolour ful",
      "ce pt",
      "Ġcra wled",
      "Ġtr ack",
      "Ġwe ird",
      "Ġch ase",
      "i que",
      "Ġh unt",
      "Ġun us",
      "g u",
      "Ġrec ord",
      "p ort",
      "Ġey e",
      "Ġho se",
      "Ġy og",
      "Ġjew el",
      "Ġan g",
      "Ġkn ife",
      "Ġman aged",
      "Ġp ump",
      "al k",
      "ur ed",
      "Ġdiffic ult",
      "M ummy",
      "A my",
      "Ġbott om",
      "Ġs il",
      "Ġkind ness",
      "Ġsw ord",
      "Ġcir cle",
      "Ġunus ual",
      "Ġun ique",
      "ĠBl ue",
      "c il",
      "Ġfr ight",
      "Ġth ick",
      "Ġtruck s",
      "Ġpen cil",
      "ĠM ark",
      "S ue",
      "Ġgi ving",
      "ll a",
      "Ġbal ance",
      "ag es",
      "Ġlaugh s",
      "Ġto ug",
      "Ġbanan a",
      "er y",
      "Ġed ge",
      "Ġa dded",
      "Ġf our",
      "ĠS usie",
      "Ġb arn",
      "Ġsh ake",
      "H ow",
      "He re",
      "Ġcomp et",
      "ĠK itty",
      "Ġf ool",
      "he ad",
      "Ġt urt",
      "er ries",
      "Ġballoon s",
      "Ġhard er",
      "keep er",
      "a w",
      "Ġd izzy",
      "Ġb erries",
      "Sp ot",
      "ra g",
      "y m",
      "Ġsmo ke",
      "Ġwra pped",
      "Ġd epend",
      "ugg led",
      "i v",
      "ol og",
      "Ġfav our",
      "Ġca b",
      "Ġbrother s",
      "Ġbl oom",
      "Ġshap e",
      "Ġgr own",
      "Ġsp un",
      "Ġch oose",
      "Ġval u",
      "Ġfall s",
      "Ġpoin ting",
      "Ġgo at",
      "Ġcir cles",
      "re ady",
      "Ġher o",
      "Ġmean s",
      "Ġba ld",
      "Ġc her",
      "Ġlearn ing",
      "Ġmark et",
      "j ect",
      "Ġap olog",
      "Ġsk in",
      "Ġenjoy ing",
      "Ġcab in",
      "Ġbr illi",
      "Ġbox es",
      "Ġfl ash",
      "Ġe ars",
      "Ġdream ed",
      "Ġimpress ed",
      "l ies",
      "Ġbelong ed",
      "Ġn orm",
      "Ġfavour ite",
      "Ġsear ch",
      "Ġagain st",
      "Ġtoug h",
      "Ġdo lp",
      "Ġhat s",
      "ĠBr own",
      "Ġis land",
      "Ġre f",
      "Ġbrilli ant",
      "Ġloud ly",
      "Ġal ready",
      "Ġpe e",
      "y e",
      "Ġbutt ons",
      "u nd",
      "Ġh arm",
      "Ġlo g",
      "ĠB obby",
      "ous es",
      "Ġmov ie",
      "ol a",
      "Ġstraw ber",
      "f ast",
      "Ġsay ing",
      "Ġwra p",
      "at ure",
      "il t",
      "Ġwa gon",
      "em o",
      "Ġsc are",
      "ra ge",
      "Ġhelp s",
      "Ġbreak fast",
      "Ġboss y",
      "Ġm elt",
      "Ġnorm al",
      "Ġc ro",
      "an ged",
      "Ġtr unk",
      "Ġsaf ely",
      "Ġcompet it",
      "Ġj ack",
      "Ġr ough",
      "Ġpain ting",
      "Ġt er",
      "Ġsl ipped",
      "Ġgra ce",
      "Ġbat ter",
      "Ġstu bb",
      "Ġcl ay",
      "Ġh ouses",
      "Ġf at",
      "ĠM y",
      "Ġbird ie",
      "Ġesc ape",
      "app ing",
      "Ġproud ly",
      "Ġfright ened",
      "Ġcheer ful",
      "Ġc udd",
      "Ġgra nd",
      "Ġcray on",
      "Ġfool ish",
      "Ġvalu able",
      "Ġwa ke",
      "Ġli br",
      "g y",
      "Ġfr idge",
      "Ġhapp iness",
      "Ġth u",
      "re en",
      "Ġknow s",
      "Ġinv ited",
      "Ġstubb orn",
      "Ġstu dy",
      "ĠTo day",
      "c ient",
      "Ġsound ed",
      "Ġto ast",
      "Ġ icy",
      "p es",
      "Ġturt le",
      "ĠEll ie",
      "Ġg uit",
      "ĠD an",
      "Ġfi er",
      "ip e",
      "om ed",
      "Ġexc la",
      "Ġoff ice",
      "w ards",
      "Ġla w",
      "Ġac cept",
      "Ġdream s",
      "art h",
      "Ġnot ice",
      "Ġshell s",
      "Ġwall s",
      "Ġan cient",
      "Ġsh ark",
      "ed ient",
      "Ġdepend able",
      "Ġexcla imed",
      "Ġt imes",
      "Ġsp ace",
      "Ġst ri",
      "Ġpar rot",
      "Ġde ad",
      "Ġwip ed",
      "Ġno sy",
      "Ġd ough",
      "Ġfier ce",
      "Ġuse ful",
      "Ġdelic ate",
      "ĠF red",
      "Ġlight s",
      "Ġp il",
      "Ġter ri",
      "Ġun l",
      "Ġc ity",
      "Ġle an",
      "Ġwe al",
      "e xt",
      "Ġtool s",
      "Ġro se",
      "Ġpour ed",
      "Ġe gg",
      "Ġr at",
      "Ġme m",
      "a z",
      "Ġfing ers",
      "Ġsuggest ed",
      "Ġmix ed",
      "Ġbag s",
      "Ġnice ly",
      "Ġsmall er",
      "or ge",
      "Ġkind s",
      "Ġmag n",
      "Ġf ountain",
      "Ġr oof",
      "Ġst ream",
      "Ġob edient",
      "Ġexcited ly",
      "Ġz ip",
      "Ġc am",
      "Ġguit ar",
      "Ġst umbled",
      "ac he",
      "Ġb itter",
      "Ġro de",
      "Ġcount ed",
      "ĠBob o",
      "ĠR ose",
      "Åĵ Let",
      "Ġla b",
      "ent ion",
      "Ġl ow",
      "Ġspin ning",
      "Ġab ove",
      "Ġo w",
      "Ġlo cked",
      "Ġdes ign",
      "k n",
      "ĠEll a",
      "Ġw itch",
      "Ġre sc",
      "Ġind epend",
      "ir p",
      "ad o",
      "Ġbus hes",
      "ĠMr s"
    ]
  }
}